<unk>	0
<s>	0
</s>	0
s	-2.89436
▁	-2.97658
▁.	-3.29507
,	-3.48857
▁the	-3.57435
▁a	-3.84188
▁and	-3.984
▁of	-3.98667
▁'	-4.2064
-	-4.24636
▁to	-4.32973
ly	-4.33884
t	-4.4269
▁is	-4.54322
ing	-4.55956
y	-4.57823
▁it	-4.78841
▁in	-4.79566
ed	-4.86121
e	-5.08052
▁The	-5.09913
▁film	-5.19305
▁with	-5.28346
▁movie	-5.33721
▁A	-5.35121
▁but	-5.36807
▁tha	-5.38086
▁as	-5.42377
▁be	-5.44902
▁for	-5.45462
'	-5.46228
d	-5.46449
▁th	-5.54773
▁an	-5.56737
▁its	-5.59065
▁you	-5.71335
at	-5.7669
▁It	-5.79586
▁I	-5.80224
▁n	-5.83467
▁on	-5.90832
▁not	-5.9231
..	-5.95162
es	-6.01563
▁by	-6.05855
▁are	-6.11174
▁-	-6.13536
▁more	-6.14549
▁like	-6.15011
▁has	-6.17357
▁thi	-6.18983
▁one	-6.19672
▁from	-6.21669
▁than	-6.22996
▁`	-6.24397
about	-6.28297
▁all	-6.30253
▁his	-6.30833
have	-6.32002
er	-6.34551
n	-6.35984
▁so	-6.37114
is	-6.37419
▁at	-6.43586
▁who	-6.44651
re	-6.44998
▁make	-6.45562
▁or	-6.49335
▁t	-6.51184
▁story	-6.52067
▁character	-6.52823
▁no	-6.59897
▁up	-6.64079
▁too	-6.64717
▁out	-6.65056
▁time	-6.65341
▁most	-6.65826
▁into	-6.67464
▁just	-6.71405
on	-6.72019
al	-6.7426
▁good	-6.74267
ity	-6.75439
▁some	-6.75599
▁do	-6.77729
▁will	-6.7812
▁can	-6.78516
▁comedy	-6.78704
▁much	-6.79958
ness	-6.80733
`	-6.84578
▁un	-6.85059
.	-6.85505
▁any	-6.86385
ir	-6.86665
f	-6.87074
▁real	-6.87426
a	-6.87798
▁what	-6.8784
▁doe	-6.89384
▁way	-6.89824
able	-6.90088
if	-6.9086
▁An	-6.91085
▁Thi	-6.91518
▁performance	-6.92708
▁even	-6.93589
hat	-6.96198
▁well	-6.96426
▁see	-6.96983
▁get	-6.97921
le	-6.9798
ce	-6.98556
▁only	-6.99962
▁look	-7.02302
▁little	-7.0247
▁he	-7.0454
ch	-7.04748
▁en	-7.05113
out	-7.05309
▁funny	-7.06475
▁go	-7.07454
▁man	-7.08107
ve	-7.08538
▁work	-7.08588
ough	-7.09414
r	-7.09726
▁may	-7.10132
▁whi	-7.10382
▁us	-7.10919
▁feel	-7.11234
▁been	-7.12518
▁over	-7.12604
▁your	-7.12736
▁never	-7.16713
▁life	-7.16821
very	-7.17449
m	-7.18869
▁love	-7.19159
▁would	-7.20424
▁was	-7.2056
▁every	-7.21341
▁there	-7.21579
one	-7.22475
▁we	-7.23122
▁director	-7.23267
en	-7.24242
?	-7.25716
o	-7.26415
▁bad	-7.26559
▁through	-7.27405
▁best	-7.27921
▁al	-7.27947
ry	-7.27955
ies	-7.28359
▁when	-7.28376
▁seem	-7.30185
▁watch	-7.30774
▁could	-7.31517
:	-7.31908
▁other	-7.34088
▁take	-7.34904
▁plot	-7.35634
ion	-7.3615
way	-7.36919
se	-7.37035
▁come	-7.37293
▁long	-7.37312
less	-7.39139
▁C	-7.40094
▁drama	-7.41138
▁should	-7.41907
▁her	-7.41991
▁how	-7.421
▁off	-7.4255
▁made	-7.42565
▁S	-7.42805
thing	-7.42941
▁them	-7.44977
▁action	-7.45373
▁something	-7.46476
▁audience	-7.47386
▁cast	-7.47538
self	-7.47774
▁own	-7.48375
▁still	-7.49714
in	-7.50497
age	-7.50967
▁thing	-7.51026
▁wh	-7.51065
st	-7.51314
▁people	-7.5207
▁two	-7.52209
an	-7.53586
▁great	-7.54585
▁T	-7.5468
▁give	-7.55354
▁What	-7.56534
▁hard	-7.57694
▁fun	-7.57967
other	-7.58593
▁better	-7.58936
▁ca	-7.59142
▁d	-7.59271
▁first	-7.59627
▁down	-7.59905
▁year	-7.60019
▁new	-7.60526
▁kind	-7.62378
▁B	-7.62489
▁picture	-7.62841
▁moment	-7.62964
▁heart	-7.64088
ation	-7.64911
▁actor	-7.65198
▁might	-7.66253
ll	-7.66385
▁ever	-7.66563
ally	-7.67125
▁end	-7.67215
▁laugh	-7.67524
▁far	-7.67539
▁script	-7.67654
▁humor	-7.67676
ful	-7.67789
▁show	-7.69019
▁sense	-7.69155
▁lack	-7.69201
▁scene	-7.70451
th	-7.70721
tween	-7.70794
▁both	-7.71521
▁In	-7.71895
lso	-7.72171
▁big	-7.72192
those	-7.72363
▁But	-7.72367
▁worth	-7.72446
ic	-7.72616
▁You	-7.72806
▁few	-7.73439
▁want	-7.74499
ment	-7.74538
▁being	-7.74647
▁play	-7.74723
i	-7.76277
▁here	-7.76369
cause	-7.76812
ther	-7.76853
▁thriller	-7.77628
;	-7.78663
most	-7.7881
▁tale	-7.79005
l	-7.79086
▁old	-7.79136
▁D	-7.79604
▁self	-7.79936
h	-7.80732
man	-7.80733
▁lot	-7.81466
▁often	-7.82782
▁documentary	-7.82841
▁original	-7.83033
▁need	-7.83215
▁s	-7.83308
▁keep	-7.84443
▁find	-7.8465
▁world	-7.8465
▁know	-7.86396
▁No	-7.8657
▁American	-7.86737
ous	-7.87397
▁less	-7.87857
▁Hollywood	-7.87883
▁entertaining	-7.87979
▁screen	-7.88144
ng	-7.88894
▁emotional	-7.89627
▁E	-7.89798
▁full	-7.9068
▁One	-7.90709
▁M	-7.91296
▁turn	-7.91752
▁re	-7.91896
▁!	-7.92114
▁again	-7.92224
▁romantic	-7.92311
▁point	-7.92571
▁interesting	-7.92901
▁ultimate	-7.93064
▁filmmaker	-7.93431
▁back	-7.93901
quite	-7.9422
▁P	-7.94295
▁were	-7.94302
the	-7.94339
▁human	-7.94377
ers	-7.94888
of	-7.94936
▁him	-7.94966
▁think	-7.95145
his	-7.96534
▁me	-7.96626
▁visual	-7.96733
▁ye	-7.96805
▁part	-7.97307
▁family	-7.97836
▁For	-7.98027
fore	-7.99155
▁Not	-7.99414
▁wo	-7.99953
▁become	-8.0114
▁acting	-8.01358
▁after	-8.01615
▁same	-8.02572
▁deliver	-8.02603
▁live	-8.03009
tic	-8.03323
▁where	-8.03437
ty	-8.03778
uch	-8.03886
▁piece	-8.03941
▁right	-8.04729
▁De	-8.04885
hing	-8.04924
▁star	-8.05167
\/	-8.05489
▁bit	-8.05843
▁subject	-8.06606
or	-8.06657
▁say	-8.06751
▁high	-8.07458
▁idea	-8.08962
▁under	-8.09304
▁Like	-8.09765
▁enjoy	-8.10046
▁As	-8.10092
▁material	-8.1084
▁With	-8.1103
▁compelling	-8.12119
▁deep	-8.12884
▁experience	-8.1377
▁my	-8.13914
▁flick	-8.14602
minutes	-8.14856
▁child	-8.14904
ialogue	-8.15172
▁young	-8.15213
▁fan	-8.15687
to	-8.16128
▁our	-8.1629
▁beautiful	-8.16397
bout	-8.16671
and	-8.17559
son	-8.1769
time	-8.18533
▁direct	-8.18733
▁F	-8.19238
▁half	-8.19298
▁w	-8.20014
est	-8.2017
ither	-8.20684
▁dark	-8.21469
▁offer	-8.22269
▁dull	-8.22491
▁All	-8.22892
▁clever	-8.23498
▁music	-8.23523
c	-8.23527
▁charm	-8.23656
▁Th	-8.23769
▁special	-8.24033
▁mind	-8.24176
▁problem	-8.2473
espite	-8.24828
▁set	-8.24872
▁leave	-8.24989
▁whole	-8.25058
▁surprising	-8.25198
▁place	-8.25225
▁entertainment	-8.25998
ism	-8.26132
▁viewer	-8.27697
▁hour	-8.2772
▁did	-8.28088
▁e	-8.28106
▁H	-8.28509
▁title	-8.28638
▁W	-8.28764
▁cinematic	-8.28767
▁perfect	-8.29073
▁video	-8.29209
ever	-8.29338
▁though	-8.29771
▁cinema	-8.29803
▁art	-8.30014
▁fascinat	-8.30201
▁talent	-8.30451
▁comic	-8.30467
▁feature	-8.3055
▁actual	-8.30785
ich	-8.31452
▁once	-8.32184
▁manage	-8.32235
▁care	-8.32329
▁near	-8.32364
▁matter	-8.32492
▁Be	-8.32657
▁last	-8.32719
▁low	-8.34231
▁fail	-8.34391
▁style	-8.34411
▁put	-8.3479
▁wit	-8.34879
▁p	-8.34881
up	-8.35195
▁pretty	-8.35201
▁direction	-8.35265
imes	-8.35389
▁kids	-8.35433
▁light	-8.35738
old	-8.35903
▁rare	-8.3601
▁sweet	-8.36618
▁short	-8.36651
day	-8.36801
▁together	-8.37326
▁interest	-8.37459
▁effort	-8.37937
▁since	-8.37977
▁certain	-8.38005
ting	-8.38117
▁Even	-8.38145
▁genre	-8.38177
▁making	-8.38196
▁Mr	-8.38275
▁final	-8.38381
▁i	-8.38414
▁serious	-8.38502
▁moving	-8.38897
had	-8.38968
▁predictabl	-8.39317
▁ra	-8.39334
▁Al	-8.39574
▁leas	-8.39834
▁Whi	-8.40343
▁works	-8.40361
it	-8.41139
▁lead	-8.41417
▁So	-8.41586
ish	-8.41619
ten	-8.4193
▁Though	-8.42013
▁power	-8.42946
ren	-8.43013
▁she	-8.43254
▁R	-8.4348
▁co	-8.43889
▁level	-8.4391
▁cliche	-8.43925
▁strong	-8.4425
ive	-8.44509
▁true	-8.44697
▁tell	-8.44702
▁fine	-8.44702
ard	-8.44737
▁dis	-8.44786
▁complete	-8.44842
▁wors	-8.45056
▁start	-8.45078
w	-8.45143
▁obvious	-8.45345
all	-8.45405
▁sound	-8.45588
▁smart	-8.45752
ey	-8.46019
▁ha	-8.46278
▁N	-8.46281
▁New	-8.46729
▁eye	-8.46904
▁silly	-8.47065
▁face	-8.4752
▁energ	-8.47635
▁b	-8.47975
▁To	-8.48084
▁done	-8.48134
us	-8.48289
▁premise	-8.48444
▁attempt	-8.48465
▁entire	-8.48487
▁message	-8.48505
▁three	-8.48766
▁slow	-8.48858
▁hav	-8.4936
ary	-8.49528
▁sad	-8.49692
▁formula	-8.50124
▁day	-8.50161
▁engaging	-8.50285
▁coming	-8.50441
▁theater	-8.50654
▁quirk	-8.5089
▁image	-8.51237
▁writer	-8.51446
▁screenplay	-8.51652
▁narrative	-8.51748
▁horror	-8.52028
around	-8.52282
▁head	-8.52546
▁mess	-8.53183
▁fresh	-8.5323
▁feeling	-8.53456
▁close	-8.53671
▁twist	-8.54316
▁war	-8.5432
▁Do	-8.54563
▁seri	-8.54723
▁honest	-8.54962
▁de	-8.5501
▁sure	-8.55123
▁O	-8.55317
▁bring	-8.55484
▁La	-8.55595
▁fall	-8.55904
▁familiar	-8.55947
though	-8.55989
▁L	-8.56145
▁romance	-8.56641
▁happen	-8.56659
▁John	-8.56834
as	-8.56934
▁solid	-8.56981
▁trying	-8.57012
▁else	-8.5706
▁classic	-8.57102
▁thought	-8.5742
▁surprise	-8.57631
▁simpl	-8.5782
p	-8.5787
▁shot	-8.5819
cy	-8.58597
▁dramatic	-8.58645
▁past	-8.5871
ything	-8.58743
▁suspense	-8.58835
▁must	-8.58871
▁hit	-8.58881
▁Un	-8.59022
▁And	-8.59389
▁odd	-8.59648
▁enjoyabl	-8.5965
ble	-8.60159
▁amusing	-8.60344
▁sort	-8.60403
▁version	-8.60416
▁stand	-8.60854
▁prove	-8.60894
▁He	-8.61346
istic	-8.61617
▁stud	-8.61697
▁culture	-8.6178
▁create	-8.61831
▁particular	-8.61907
▁along	-8.62567
▁clear	-8.62595
▁run	-8.62626
▁histor	-8.62695
ine	-8.63018
special	-8.63416
▁remain	-8.63809
▁small	-8.63839
▁bor	-8.63931
ted	-8.64025
▁reason	-8.64176
▁intelligent	-8.64295
▁pleasure	-8.64382
ile	-8.64658
▁Some	-8.64711
▁rich	-8.64859
be	-8.65487
▁debut	-8.65581
▁flaw	-8.65602
▁treat	-8.65909
▁role	-8.66
▁modern	-8.66129
▁stuff	-8.663
k	-8.66524
▁charming	-8.66759
▁line	-8.66884
▁sex	-8.67214
▁exercise	-8.67459
▁portrait	-8.6746
▁act	-8.68321
▁book	-8.68738
ne	-8.68965
▁call	-8.69012
▁slight	-8.69511
▁We	-8.69858
um	-8.69947
u	-8.70249
▁word	-8.70438
hile	-8.70748
▁Every	-8.70854
each	-8.70941
director	-8.711
▁result	-8.71339
▁Just	-8.7137
▁fact	-8.71412
▁sequel	-8.7146
▁dumb	-8.71581
▁tone	-8.71633
▁production	-8.71727
▁easy	-8.71795
▁gag	-8.71912
▁now	-8.7221
▁help	-8.72332
▁believe	-8.72565
▁teen	-8.72742
▁somet	-8.72901
▁Li	-8.73089
▁warm	-8.73208
▁opera	-8.73316
▁question	-8.73457
▁powerful	-8.7351
▁hero	-8.7408
▁ending	-8.74406
▁effect	-8.74645
▁recent	-8.75397
▁When	-8.75666
▁miss	-8.76624
▁moral	-8.76718
▁m	-8.76855
▁strange	-8.77426
minute	-8.77467
▁add	-8.77501
▁relationship	-8.77588
▁project	-8.77589
ory	-8.77642
ie	-8.77686
▁follow	-8.77805
▁c	-8.77839
▁open	-8.77885
▁pop	-8.77951
▁r	-8.78608
▁spirit	-8.78673
like	-8.79466
▁genuine	-8.79589
▁Director	-8.79596
▁quiet	-8.79604
▁element	-8.79609
▁wonder	-8.79703
▁French	-8.79713
▁force	-8.79813
▁easi	-8.79993
▁adult	-8.80108
▁tru	-8.80296
ter	-8.80341
▁jokes	-8.80493
▁Davi	-8.80608
▁On	-8.81521
▁melodrama	-8.81739
▁detail	-8.81889
▁summer	-8.81936
▁usual	-8.82022
▁possibl	-8.82048
▁flat	-8.82155
▁reality	-8.82403
▁use	-8.82601
▁heavy	-8.82653
▁K	-8.82908
▁ride	-8.83077
▁Le	-8.83129
▁TV	-8.8331
▁let	-8.83901
▁left	-8.8396
▁straight	-8.83988
▁sequence	-8.84042
▁reveal	-8.84165
▁hand	-8.84503
▁mood	-8.84573
▁touching	-8.84633
▁That	-8.84929
il	-8.84995
id	-8.85002
off	-8.85399
▁At	-8.8549
▁Too	-8.85777
▁minute	-8.86217
▁quick	-8.86256
▁difficult	-8.86257
▁intriguing	-8.86292
▁understand	-8.86294
▁Jack	-8.86326
▁beyond	-8.8639
▁brilliant	-8.86425
▁crime	-8.86454
iness	-8.86573
ves	-8.86592
▁second	-8.86809
▁late	-8.86951
▁My	-8.87086
▁simple	-8.87101
▁adventure	-8.87115
▁satisfying	-8.87116
ney	-8.8737
▁By	-8.87462
▁fair	-8.88041
next	-8.88191
▁emotion	-8.8841
ical	-8.88587
▁wonderful	-8.88624
by	-8.88638
▁terrific	-8.88645
▁large	-8.88817
▁super	-8.88916
▁artist	-8.88991
▁f	-8.89026
▁found	-8.89253
▁remarkabl	-8.89257
▁nice	-8.89297
ily	-8.89821
ar	-8.89875
▁main	-8.90057
▁journ	-8.90249
fi	-8.90387
▁passion	-8.91028
▁psychological	-8.91117
▁above	-8.91136
▁truth	-8.91173
▁present	-8.91302
year	-8.91365
▁camera	-8.91388
▁capture	-8.91492
▁ma	-8.91516
▁tries	-8.91627
▁deal	-8.91806
▁Love	-8.91981
▁sentimental	-8.92518
▁hope	-8.92902
▁deserve	-8.93039
▁approach	-8.93069
▁mix	-8.93079
ro	-8.93369
▁situation	-8.93402
▁insight	-8.93454
▁refreshing	-8.93463
▁occasional	-8.93564
ling	-8.93756
▁extreme	-8.93884
▁pretentious	-8.93952
▁abou	-8.94061
effects	-8.94456
▁War	-8.94592
ian	-8.95182
▁grow	-8.95894
▁cartoon	-8.95899
▁painful	-8.95912
▁social	-8.95914
▁Disney	-8.96041
▁exact	-8.96043
2	-8.96051
▁black	-8.96057
▁epic	-8.96118
so	-8.96154
▁impossibl	-8.96198
▁Man	-8.9654
▁Re	-8.96703
▁political	-8.96708
▁dead	-8.9673
▁nor	-8.97014
▁home	-8.9745
▁expect	-8.97748
where	-8.97783
▁provide	-8.97839
▁complex	-8.97913
▁Ca	-8.97957
▁soul	-8.98565
different	-8.98567
▁sustain	-8.98611
▁effective	-8.98632
▁Time	-8.98845
▁Good	-8.99004
▁writing	-8.99303
ese	-8.99724
▁G	-8.99762
▁stor	-9.00166
▁inter	-9.00316
▁wild	-9.0069
▁memor	-9.00693
▁weird	-9.01091
▁animation	-9.01102
▁pro	-9.01102
▁middle	-9.01119
wise	-9.01176
▁hilarious	-9.0125
▁Big	-9.01267
▁mild	-9.01369
▁standard	-9.01421
ather	-9.01605
▁pull	-9.01614
▁How	-9.0176
▁taste	-9.01929
movie	-9.01959
▁fill	-9.02249
▁case	-9.02357
ant	-9.02816
▁appear	-9.02866
probabl	-9.02944
▁game	-9.03083
▁Brit	-9.03108
▁mere	-9.0311
▁Ben	-9.03485
▁mean	-9.03505
budget	-9.03757
▁already	-9.03791
▁delightful	-9.03821
▁thoughtful	-9.03878
▁traged	-9.0388
▁qualit	-9.03884
ael	-9.03952
▁satir	-9.03952
▁death	-9.03973
▁utter	-9.04464
ure	-9.04471
te	-9.04761
▁J	-9.04909
▁consider	-9.04992
▁personal	-9.05121
▁form	-9.05277
▁pace	-9.05294
▁X	-9.05306
own	-9.05328
▁fast	-9.05704
A	-9.05707
▁appeal	-9.05792
▁event	-9.05817
▁change	-9.05843
ance	-9.05897
making	-9.06549
▁Robert	-9.06569
▁process	-9.06576
▁tedious	-9.06578
▁sit	-9.06619
▁soap	-9.06623
▁begin	-9.06627
z	-9.06699
▁Ma	-9.06746
job	-9.06763
▁boy	-9.06852
▁depth	-9.0689
▁parent	-9.07021
▁suffer	-9.07135
ated	-9.07415
▁novel	-9.07434
▁Ja	-9.0753
▁pure	-9.07624
▁Has	-9.08115
▁hold	-9.08214
▁cut	-9.08221
side	-9.09081
▁storytell	-9.09155
stead	-9.0922
▁air	-9.09249
▁potential	-9.09429
▁impressive	-9.09442
▁waste	-9.09484
▁awful	-9.09593
▁grand	-9.09622
▁bland	-9.09639
▁mystery	-9.0976
▁sexual	-9.09795
wrong	-9.09798
▁pay	-9.09906
▁issue	-9.09931
el	-9.09953
hood	-9.10172
▁credit	-9.10189
▁school	-9.10437
funny	-9.1048
ought	-9.10655
▁touch	-9.10674
▁wom	-9.1107
▁God	-9.11329
▁value	-9.11408
▁subtle	-9.1144
▁violen	-9.11584
▁general	-9.11662
▁intelligen	-9.11804
years	-9.1219
▁pe	-9.12377
▁se	-9.12405
mer	-9.12456
▁Mich	-9.1246
▁Oscar	-9.12526
▁monster	-9.12551
▁single	-9.12559
▁name	-9.12667
▁vision	-9.12782
g	-9.12876
rs	-9.12885
men	-9.13015
ence	-9.13186
▁sci	-9.1319
▁allow	-9.13263
▁magic	-9.13435
cross	-9.1345
handed	-9.13491
ose	-9.13703
▁equal	-9.14162
▁writ	-9.14587
cted	-9.14642
x	-9.14768
▁Ther	-9.14785
▁filmmak	-9.15044
▁mark	-9.1509
▁gentl	-9.1515
▁thorough	-9.15422
▁attention	-9.15576
▁post	-9.156
▁concept	-9.1583
▁men	-9.15923
▁gone	-9.16416
▁got	-9.16835
▁rest	-9.17127
▁drag	-9.17158
▁count	-9.17436
ck	-9.17489
▁car	-9.17617
▁sharp	-9.17876
▁More	-9.17916
▁side	-9.17935
▁period	-9.18513
▁engross	-9.18518
▁excellen	-9.18539
▁contriv	-9.18556
▁recommend	-9.18654
▁adaptation	-9.1876
▁animated	-9.18806
▁brain	-9.18923
▁bare	-9.18952
▁cool	-9.19242
▁view	-9.19247
▁U	-9.19251
▁terribl	-9.1929
nstead	-9.19341
▁non	-9.19821
for	-9.19851
▁II	-9.20163
▁faith	-9.20247
▁stay	-9.20577
▁craft	-9.20789
▁class	-9.20917
ist	-9.20996
▁fight	-9.21041
▁cheap	-9.21543
▁focus	-9.21579
▁ne	-9.21604
▁success	-9.21726
▁conflict	-9.21741
▁mediocr	-9.21742
▁gorgeous	-9.21745
▁Co	-9.21751
▁succeed	-9.21752
▁remake	-9.21766
▁Full	-9.21767
▁actress	-9.21859
▁historical	-9.21896
▁William	-9.21928
▁pre	-9.22061
▁manner	-9.22168
▁sub	-9.22217
▁Na	-9.22355
▁career	-9.22396
screen	-9.22688
▁wait	-9.22744
▁20	-9.22982
▁examin	-9.23066
▁stupid	-9.232
▁Sea	-9.23312
ur	-9.23897
▁thrill	-9.24231
▁nature	-9.24458
ward	-9.24983
▁earnest	-9.25106
▁ugly	-9.25156
▁tension	-9.25182
▁Most	-9.25191
▁term	-9.25274
▁creepy	-9.25293
▁ambitious	-9.25306
▁Well	-9.25334
▁decent	-9.25387
▁fantasy	-9.25392
▁future	-9.2542
ts	-9.25443
▁pac	-9.25486
▁four	-9.25509
▁girl	-9.2592
▁important	-9.2601
▁excit	-9.2632
▁appealing	-9.26413
▁doing	-9.26525
▁serve	-9.26735
msel	-9.26853
lly	-9.27163
▁dur	-9.27173
▁natural	-9.27185
sh	-9.27187
▁com	-9.27374
▁Ne	-9.27484
▁Mar	-9.27509
▁Ba	-9.27889
▁Lo	-9.2802
▁10	-9.28033
▁con	-9.28201
▁break	-9.28248
ring	-9.28301
▁vivid	-9.28516
▁routine	-9.28518
▁plain	-9.28633
▁Car	-9.2864
▁cold	-9.28713
itting	-9.28814
▁plent	-9.28821
D	-9.28968
▁scary	-9.29001
omen	-9.29012
▁inside	-9.29016
▁creative	-9.29251
▁memory	-9.29532
▁joy	-9.29664
▁runn	-9.29718
▁throw	-9.29767
▁blood	-9.30299
me	-9.30418
nt	-9.3047
▁v	-9.30513
▁free	-9.30648
▁guy	-9.30925
ver	-9.3143
he	-9.31502
▁America	-9.31679
▁su	-9.31782
▁meaning	-9.3193
▁Gran	-9.3199
▁female	-9.32086
▁After	-9.32089
▁welcome	-9.3209
▁impact	-9.32091
▁thin	-9.32112
▁unexpected	-9.32139
▁major	-9.32175
▁among	-9.32196
▁Bo	-9.3231
▁imagine	-9.32318
▁amount	-9.32319
▁damn	-9.32325
land	-9.3242
key	-9.32424
R	-9.32453
▁promise	-9.32541
▁score	-9.32687
nce	-9.32815
▁episode	-9.3299
▁song	-9.33018
ny	-9.33243
▁Fro	-9.33615
life	-9.33747
semble	-9.33944
▁2	-9.33967
▁Steven	-9.34064
red	-9.34071
▁Ho	-9.34319
ley	-9.34502
▁Ye	-9.34533
S	-9.34648
▁Men	-9.3465
▁share	-9.34804
▁lo	-9.3486
beat	-9.34954
▁edge	-9.35025
▁Girl	-9.35762
▁design	-9.35789
▁previous	-9.35792
▁predecessor	-9.35794
▁friendship	-9.35795
▁Movie	-9.35822
▁absolute	-9.35839
▁successful	-9.35855
▁Watch	-9.35881
▁inventive	-9.35975
▁couple	-9.35997
▁remember	-9.3606
▁blend	-9.36108
▁drive	-9.36142
▁speak	-9.36487
▁tear	-9.36695
▁ill	-9.36709
▁avoid	-9.36843
▁di	-9.36861
ma	-9.36974
▁Day	-9.37143
▁move	-9.37231
▁wish	-9.37309
▁release	-9.37394
ke	-9.37425
▁definite	-9.37633
how	-9.38675
▁fit	-9.38706
▁simp	-9.39225
▁los	-9.39255
▁comedi	-9.39437
▁delight	-9.39585
▁Secret	-9.39601
▁chemist	-9.39601
▁unique	-9.39607
▁behind	-9.39625
▁superficial	-9.39638
▁provocative	-9.39643
▁bitter	-9.39675
▁flash	-9.39686
▁unsettling	-9.39687
▁sign	-9.39718
▁figure	-9.39731
▁doubt	-9.39736
▁huge	-9.39803
▁deft	-9.39822
▁Spielberg	-9.39853
▁thank	-9.39902
▁working	-9.39904
▁fel	-9.39959
pping	-9.40002
▁root	-9.40008
▁stunt	-9.40149
▁sincere	-9.40303
▁joke	-9.40346
▁cute	-9.40401
fashioned	-9.40415
▁unlike	-9.40442
▁colleg	-9.40451
▁none	-9.405
▁dream	-9.40828
▁mother	-9.4085
▁edit	-9.41056
▁goof	-9.41194
▁water	-9.41235
ton	-9.41356
▁h	-9.41525
▁Boy	-9.41942
▁hip	-9.41986
▁necessar	-9.4224
ize	-9.42285
▁talk	-9.42401
▁imaginati	-9.42494
dy	-9.42515
▁br	-9.4254
▁l	-9.42843
▁number	-9.43147
▁date	-9.43595
▁delicate	-9.43602
▁unusual	-9.43603
▁crowd	-9.43604
▁Japan	-9.43605
▁awkward	-9.43656
▁abilit	-9.43676
▁supposed	-9.43676
▁kid	-9.43697
▁pleasant	-9.43705
▁Feel	-9.43705
▁construct	-9.43773
hearted	-9.43791
▁charisma	-9.43805
ned	-9.43812
▁Bond	-9.43859
▁meditati	-9.43889
▁Kid	-9.43913
▁Home	-9.43945
ball	-9.44021
▁Spy	-9.44058
▁reward	-9.44075
▁contemporar	-9.44106
right	-9.44142
over	-9.44286
uous	-9.44301
▁concern	-9.4434
b	-9.44454
▁Chin	-9.44483
B	-9.44524
▁wear	-9.44636
▁balance	-9.44656
▁roll	-9.44785
M	-9.44845
▁frame	-9.4499
▁funnie	-9.45171
▁pass	-9.45176
▁convincing	-9.45382
ial	-9.45407
▁road	-9.45683
▁Park	-9.45693
▁ago	-9.45809
led	-9.45856
than	-9.45868
▁Go	-9.46321
sky	-9.46341
school	-9.46346
▁foot	-9.4653
▁cultur	-9.46537
▁cross	-9.47047
▁person	-9.4716
▁weak	-9.47189
em	-9.47282
▁stage	-9.47326
ock	-9.47385
▁reach	-9.47435
▁combin	-9.47621
▁Georg	-9.47757
▁cynic	-9.47772
▁stylish	-9.47778
▁triumph	-9.47783
▁substance	-9.47795
▁stunning	-9.47803
▁melodramatic	-9.47817
▁uneven	-9.47819
▁disturbing	-9.47926
▁win	-9.47959
▁Green	-9.47976
▁murder	-9.48022
ight	-9.48193
▁grace	-9.4824
▁Wh	-9.48241
▁g	-9.48285
▁inspir	-9.48404
saw	-9.48455
▁fran	-9.48519
▁absorb	-9.48552
▁setting	-9.48606
▁Ver	-9.48634
provok	-9.48693
▁dog	-9.48695
given	-9.48712
▁urban	-9.48744
▁beaut	-9.4877
▁ground	-9.48804
▁respect	-9.48832
▁desperate	-9.48865
▁Her	-9.49022
▁opportunit	-9.49069
▁winning	-9.49089
▁suggest	-9.49154
probab	-9.49187
▁remind	-9.49803
▁Tom	-9.49831
▁motion	-9.49889
ul	-9.49917
co	-9.4997
▁loud	-9.5003
▁somewh	-9.50079
▁gross	-9.5023
taking	-9.50512
head	-9.50565
▁Wild	-9.50747
ible	-9.50769
▁York	-9.50923
▁Thing	-9.51029
▁High	-9.51171
line	-9.51236
▁haunt	-9.51521
act	-9.51562
▁save	-9.51936
▁highly	-9.52099
▁rhythm	-9.52115
▁eventual	-9.52122
▁gift	-9.52126
▁drug	-9.52131
▁Two	-9.52152
▁intimate	-9.52201
▁battle	-9.52201
▁Adam	-9.52224
▁learn	-9.52227
▁tragic	-9.52297
hour	-9.52373
▁Show	-9.52395
▁shock	-9.52416
ot	-9.52508
▁sever	-9.52524
▁sensitiv	-9.52632
▁masterpiece	-9.52658
▁inspire	-9.52687
mes	-9.52853
▁trip	-9.52909
▁camp	-9.53009
een	-9.53115
▁pack	-9.53219
▁rivet	-9.53318
▁involving	-9.53377
▁Is	-9.53417
▁forgettabl	-9.53421
▁fear	-9.53532
▁skin	-9.5359
▁match	-9.53619
▁emerge	-9.53631
▁toward	-9.53769
▁based	-9.53811
mon	-9.54012
ld	-9.54046
▁poignan	-9.54091
▁Z	-9.54336
some	-9.54402
▁hack	-9.54511
▁try	-9.54587
▁top	-9.54642
▁era	-9.54714
om	-9.54732
▁gri	-9.54911
▁costume	-9.54941
▁19	-9.55041
body	-9.55079
low	-9.55094
etic	-9.55168
made	-9.55255
ski	-9.55343
rhaps	-9.55371
▁per	-9.55546
▁fire	-9.55607
▁Ni	-9.55722
▁considerabl	-9.55757
▁build	-9.55794
▁entertain	-9.55805
ad	-9.55815
go	-9.56056
▁dry	-9.56211
T	-9.56288
▁wise	-9.56553
▁except	-9.566
▁involve	-9.56611
▁purpose	-9.56615
▁Sha	-9.56624
▁strength	-9.56661
▁bizarre	-9.56661
▁derivative	-9.56661
▁brutal	-9.56665
▁business	-9.56668
▁folk	-9.5667
▁ridiculous	-9.56681
▁Paul	-9.5669
▁development	-9.56691
▁spiritual	-9.56729
▁insightful	-9.56734
▁demand	-9.56807
▁depressing	-9.56905
▁generic	-9.56924
▁target	-9.56928
▁screenwriter	-9.56954
▁structure	-9.5696
▁bright	-9.57017
▁skill	-9.57034
ra	-9.57049
▁destin	-9.57089
▁finish	-9.57091
aid	-9.57093
▁living	-9.57118
▁apart	-9.57123
▁complicat	-9.5724
▁hate	-9.57291
▁slap	-9.57293
▁televis	-9.57302
▁cop	-9.577
elf	-9.5773
tion	-9.58031
▁ho	-9.58055
▁May	-9.58166
▁200	-9.58227
▁photograph	-9.58272
▁viewing	-9.58364
ture	-9.58446
▁centr	-9.58515
X	-9.58681
▁promising	-9.58864
dom	-9.59595
▁Da	-9.5965
▁creat	-9.59655
lin	-9.59784
▁struggle	-9.59833
track	-9.59971
▁st	-9.60037
▁chill	-9.60247
▁read	-9.60402
▁stop	-9.60426
▁played	-9.60481
style	-9.60639
field	-9.60797
▁exist	-9.60981
▁tough	-9.60997
▁Mur	-9.61036
conscious	-9.61104
▁cha	-9.61126
ven	-9.61195
ent	-9.61204
▁poet	-9.61234
▁portray	-9.61338
▁relentless	-9.61422
▁extraordinar	-9.61425
▁Sandler	-9.61426
▁Count	-9.61429
giving	-9.61448
▁colorful	-9.61458
abilit	-9.61462
▁chance	-9.615
▁money	-9.61504
▁Never	-9.6153
▁surface	-9.61543
▁Any	-9.6155
▁price	-9.61556
▁Sa	-9.61642
▁Guy	-9.6167
▁essential	-9.61698
▁spectacular	-9.6171
▁total	-9.61765
▁typical	-9.61818
▁check	-9.61966
▁South	-9.62049
▁authentic	-9.62061
▁mis	-9.62184
▁chase	-9.62238
▁punch	-9.62326
▁realistic	-9.62505
phy	-9.62584
▁badly	-9.62592
▁please	-9.62597
yourself	-9.62615
▁lame	-9.6267
▁trash	-9.62691
▁virtual	-9.62781
action	-9.62957
▁Ro	-9.63012
▁achieve	-9.63099
▁Mor	-9.63201
▁test	-9.63256
▁Dog	-9.63433
▁desire	-9.63535
▁mad	-9.63775
her	-9.63846
▁wor	-9.63925
▁rise	-9.64122
▁whe	-9.64169
▁stick	-9.64269
ries	-9.64378
shed	-9.64391
▁Me	-9.64448
▁seat	-9.64557
▁offering	-9.64645
▁Sh	-9.64807
▁studio	-9.64885
▁Pa	-9.65089
▁sports	-9.65176
▁Chan	-9.65226
fer	-9.65237
▁Ev	-9.6537
▁draw	-9.65392
▁90	-9.65482
live	-9.65489
▁Star	-9.65554
▁explore	-9.6576
▁loss	-9.65761
▁Rock	-9.65783
▁document	-9.65998
fel	-9.66131
ier	-9.66225
▁Ste	-9.66231
▁represent	-9.66291
▁atmospher	-9.66374
▁cinematograph	-9.66422
▁World	-9.66424
▁nuance	-9.66427
▁Wedding	-9.66428
▁Sweet	-9.66432
▁mesmeriz	-9.66448
▁incredibl	-9.66452
▁modest	-9.66477
▁relative	-9.6649
▁convey	-9.66509
▁Bull	-9.66521
▁minor	-9.66532
▁tender	-9.66564
▁imaginative	-9.66636
▁kick	-9.66685
▁broad	-9.66699
star	-9.66721
▁overcome	-9.66762
▁affecting	-9.66776
▁return	-9.6686
▁Scor	-9.6694
▁generation	-9.66954
▁frequent	-9.67014
▁disappointing	-9.67074
gal	-9.67075
▁intense	-9.67203
▁gay	-9.67249
hose	-9.67262
▁search	-9.67343
▁whims	-9.67347
▁center	-9.67492
▁color	-9.67556
▁Clo	-9.67564
▁realize	-9.67621
▁sleep	-9.67622
venge	-9.67662
▁lesson	-9.67737
▁talking	-9.67779
ether	-9.67827
gh	-9.67911
▁forget	-9.68159
▁require	-9.68481
▁She	-9.68524
▁mid	-9.68788
▁member	-9.68803
▁tire	-9.68885
▁type	-9.68906
▁basic	-9.69011
▁rock	-9.69082
▁performer	-9.69154
▁fare	-9.69217
zy	-9.69328
down	-9.69573
▁sh	-9.69765
mark	-9.69838
▁excite	-9.69984
rous	-9.70296
corn	-9.70312
chi	-9.70452
▁o	-9.7053
▁fashion	-9.70704
▁mo	-9.70707
▁artistic	-9.70737
▁poor	-9.70738
▁walk	-9.7076
▁believ	-9.70855
▁list	-9.7087
▁suit	-9.7088
▁anti	-9.70986
▁develop	-9.71008
▁master	-9.71033
▁fiction	-9.71262
told	-9.71391
de	-9.71466
hem	-9.71495
ould	-9.71608
▁theme	-9.71609
&	-9.71686
▁Solondz	-9.71686
▁Ultimate	-9.71686
▁glimpse	-9.71686
▁spectacle	-9.71686
▁undeniabl	-9.71686
▁victim	-9.71686
▁unintentional	-9.71687
▁constant	-9.71689
▁sketch	-9.7169
▁maintain	-9.7169
▁Dragon	-9.71696
▁Blade	-9.717
▁Black	-9.71705
▁choice	-9.71706
▁exploration	-9.71716
▁technical	-9.71719
▁Martin	-9.71723
▁amazing	-9.71731
▁Peter	-9.71741
▁slice	-9.71745
▁observation	-9.71749
▁source	-9.71752
▁ask	-9.71778
▁Sara	-9.71951
▁answer	-9.71976
▁intellectual	-9.71993
▁guilty	-9.72007
▁St	-9.72117
▁limit	-9.72179
▁Blue	-9.72183
▁apparent	-9.72192
▁guess	-9.72325
ensive	-9.72448
ut	-9.72544
▁challeng	-9.72583
▁carrie	-9.72592
▁inspiration	-9.72595
▁executi	-9.72596
spite	-9.72618
happy	-9.72725
ends	-9.7277
minded	-9.72788
▁engage	-9.72903
▁bold	-9.72928
ay	-9.72936
▁spot	-9.72955
▁intention	-9.73258
▁gun	-9.73274
▁means	-9.73374
▁aim	-9.73376
▁shake	-9.73532
▁poetic	-9.73557
▁spy	-9.73604
▁craz	-9.73774
ow	-9.73911
▁decades	-9.74401
▁bar	-9.75214
▁space	-9.75569
▁politic	-9.75809
▁Jo	-9.7585
▁length	-9.75891
▁appreciate	-9.75953
its	-9.76091
▁confus	-9.76092
▁transcend	-9.76154
▁group	-9.76213
pid	-9.76375
valent	-9.76623
▁Ya	-9.76636
ship	-9.7667
gged	-9.76793
▁strain	-9.76838
▁absurd	-9.76886
▁suck	-9.76898
▁party	-9.76901
▁Dam	-9.76908
sweet	-9.76972
▁Sad	-9.7713
▁produce	-9.77174
▁support	-9.77193
▁affection	-9.77233
▁computer	-9.77241
▁example	-9.77242
▁profound	-9.77243
▁yarn	-9.77244
▁amateurish	-9.77244
▁pretension	-9.77246
▁repetitive	-9.77248
▁giant	-9.77249
▁Brown	-9.77259
▁enter	-9.77266
▁Queen	-9.77268
▁annoying	-9.77269
▁favor	-9.77282
▁endearing	-9.77294
▁aspect	-9.77304
▁pa	-9.77315
mber	-9.7735
▁careful	-9.77405
▁Kev	-9.77416
▁grie	-9.77455
▁team	-9.77523
▁spoof	-9.7757
▁expectation	-9.7757
▁shallow	-9.77576
▁community	-9.77583
▁endless	-9.77631
▁laz	-9.77658
▁V	-9.7767
▁spend	-9.7768
▁commercial	-9.77782
▁Dead	-9.77846
conventional	-9.77846
▁moviegoer	-9.77857
▁indie	-9.77885
▁Play	-9.77948
▁trick	-9.77979
▁catch	-9.78063
▁musical	-9.78111
▁nonsens	-9.78119
▁raw	-9.78201
▁equi	-9.78292
long	-9.784
▁hell	-9.78562
▁regard	-9.78569
les	-9.78635
▁spark	-9.78691
▁accessib	-9.78781
▁Bir	-9.78864
elling	-9.7892
▁ver	-9.78937
▁rat	-9.79041
▁8	-9.79432
▁sight	-9.79485
erber	-9.79635
▁bo	-9.79662
▁kill	-9.79717
▁Ch	-9.79724
▁white	-9.7976
ings	-9.79765
▁accept	-9.79882
▁King	-9.80027
I	-9.80239
light	-9.80645
▁lyric	-9.81044
▁Mont	-9.81205
▁Cho	-9.8124
ise	-9.813
good	-9.81351
tory	-9.81659
▁Pol	-9.81726
room	-9.81754
▁Story	-9.81763
▁bu	-9.81842
night	-9.81925
▁cover	-9.82089
▁Will	-9.82219
▁exploit	-9.82311
▁age	-9.82358
▁shoot	-9.82478
▁Or	-9.82642
▁Night	-9.82824
▁Mi	-9.82838
▁dig	-9.82857
▁Sod	-9.8287
▁perspective	-9.83123
▁protagonist	-9.83123
▁unpleasant	-9.83126
▁affair	-9.83127
▁sitcom	-9.83127
▁Roger	-9.83128
▁Nichol	-9.8313
▁tribute	-9.8313
▁fur	-9.83144
▁societ	-9.83149
▁irritating	-9.83153
▁unfortunate	-9.83155
▁outrageous	-9.83158
▁Under	-9.83159
▁impression	-9.83171
▁exhilarating	-9.83172
▁trifle	-9.83191
▁precious	-9.83192
▁horribl	-9.832
▁striking	-9.83202
▁Over	-9.83242
unch	-9.83246
▁empty	-9.83306
▁service	-9.83311
▁connect	-9.83325
▁Much	-9.83326
▁beat	-9.83358
▁Pian	-9.83388
▁common	-9.83404
▁nowhere	-9.83426
▁gem	-9.83429
▁pointless	-9.83444
▁greatest	-9.83485
▁innocen	-9.8351
▁sentiment	-9.83558
▁Hour	-9.83572
▁Friday	-9.83816
▁manipulative	-9.83844
▁storyline	-9.83914
▁Power	-9.83933
ping	-9.84004
▁famili	-9.84193
▁smile	-9.84235
et	-9.84269
▁poorly	-9.84351
used	-9.84624
▁Hu	-9.84673
▁Bar	-9.84826
▁intend	-9.84941
▁week	-9.84977
ner	-9.84993
justice	-9.85039
▁fish	-9.85075
▁male	-9.8517
▁voice	-9.85196
▁Wood	-9.85204
▁aver	-9.85245
▁Chris	-9.85272
▁wry	-9.8531
▁paint	-9.85383
▁rip	-9.85386
▁wide	-9.85505
▁Roman	-9.85519
▁reading	-9.85577
L	-9.85844
▁spook	-9.85919
1	-9.85943
▁inner	-9.86105
▁sta	-9.86158
void	-9.86287
characterization	-9.86432
brid	-9.86486
▁pain	-9.86713
wood	-9.86813
▁His	-9.86875
▁escape	-9.86876
▁Red	-9.87179
back	-9.87717
our	-9.87775
▁step	-9.8778
▁reasonabl	-9.87883
top	-9.87961
well	-9.88101
▁Wil	-9.88361
▁disappoint	-9.88525
▁bore	-9.88534
▁critic	-9.88689
▁rent	-9.88791
▁hear	-9.88839
▁Of	-9.88883
▁surreal	-9.89006
▁metaphor	-9.89155
▁mistake	-9.89179
▁vehicle	-9.89373
▁scenario	-9.89374
▁positive	-9.89379
▁excess	-9.89386
▁Writer	-9.89388
▁clunk	-9.8939
▁unfold	-9.89402
▁masterful	-9.89421
▁vibran	-9.89426
▁vital	-9.89431
▁execut	-9.89432
▁slick	-9.89466
▁harm	-9.8949
▁settle	-9.89519
▁Fire	-9.89531
▁frustrating	-9.89533
▁shame	-9.89539
Man	-9.8955
▁universal	-9.89567
▁grim	-9.89626
▁stomach	-9.89703
▁daring	-9.89864
king	-9.89899
na	-9.89929
stream	-9.89945
▁consistent	-9.89953
fall	-9.90007
▁Kissing	-9.90019
▁Who	-9.90364
▁personalit	-9.90437
▁centur	-9.90645
▁Bear	-9.90723
▁Du	-9.90848
▁hair	-9.90871
▁sp	-9.90876
▁improve	-9.90917
house	-9.90933
▁behavio	-9.91032
hop	-9.91041
▁market	-9.91169
▁langu	-9.91222
ate	-9.91237
expected	-9.91271
▁eccentric	-9.91432
▁raise	-9.91432
▁Pinoc	-9.9149
company	-9.91551
▁4	-9.91662
pe	-9.91879
▁describe	-9.92143
▁determin	-9.92202
▁soft	-9.92331
▁exceptional	-9.92403
▁bored	-9.92431
▁Somet	-9.92622
▁fi	-9.9271
▁loose	-9.92914
work	-9.92921
▁trouble	-9.92936
▁Ra	-9.92956
▁seeming	-9.93071
ia	-9.93073
▁Wilde	-9.93127
▁willing	-9.93269
spirited	-9.93343
ick	-9.93476
cent	-9.93599
▁du	-9.93605
gger	-9.93643
▁Cra	-9.93696
uring	-9.93779
ntal	-9.93879
▁Ring	-9.94104
▁ab	-9.94308
▁sympath	-9.94423
▁Di	-9.94572
▁Moo	-9.94621
▁travel	-9.9467
▁Jam	-9.94797
▁goe	-9.9495
▁arrive	-9.94962
▁demonstrate	-9.94966
ideas	-9.95057
▁embarrass	-9.95154
▁soon	-9.95225
ge	-9.95321
C	-9.95489
▁Tu	-9.95519
ze	-9.95824
▁industr	-9.95847
▁Kaufman	-9.9604
▁individual	-9.9604
▁nostalgi	-9.9604
▁visceral	-9.9604
▁Beautiful	-9.9604
▁Italian	-9.96041
▁benefit	-9.96042
▁shadow	-9.96043
▁exquisite	-9.96044
▁conclusion	-9.96044
▁breathtaking	-9.96045
▁Greek	-9.96045
▁showcase	-9.96047
▁Life	-9.96049
▁proceed	-9.96052
▁incoheren	-9.96053
▁measure	-9.96055
▁Poke	-9.96056
▁Angel	-9.96057
▁conviction	-9.96057
▁beginning	-9.96059
▁display	-9.96065
▁tiresome	-9.96068
▁author	-9.96069
▁ambition	-9.96074
▁depiction	-9.96078
▁Arn	-9.96081
▁superb	-9.96095
▁resonance	-9.96113
▁courage	-9.96115
▁increasing	-9.96127
▁Ryan	-9.96139
▁Indian	-9.96158
▁spell	-9.96177
▁addition	-9.96216
▁angst	-9.96246
▁inept	-9.96256
ac	-9.9628
▁playful	-9.96385
▁professional	-9.96429
nes	-9.96434
▁condition	-9.96486
▁sick	-9.96494
▁Work	-9.96501
▁season	-9.96509
▁stale	-9.96579
▁slopp	-9.96605
▁sheer	-9.9665
▁adolescent	-9.967
▁banal	-9.96736
▁science	-9.96763
▁Take	-9.96792
▁winner	-9.96821
▁wife	-9.96858
0	-9.96904
▁intrigue	-9.96955
form	-9.96987
▁elegant	-9.9699
▁comfort	-9.97
▁pick	-9.97058
▁render	-9.97061
▁Nick	-9.97099
▁comedic	-9.97109
▁Burn	-9.9712
▁territor	-9.97185
▁spin	-9.972
▁state	-9.97259
▁unti	-9.97329
indulgent	-9.9733
▁Jon	-9.97431
▁Heav	-9.97502
▁complexit	-9.97508
class	-9.97581
▁admirabl	-9.97593
▁room	-9.97596
▁Rare	-9.97618
▁Ga	-9.97713
▁Y	-9.9779
▁escapis	-9.98128
ooper	-9.98184
natured	-9.98306
▁empath	-9.98316
▁overly	-9.98361
ud	-9.98508
▁bag	-9.98581
▁land	-9.98661
▁Per	-9.98854
▁Cru	-9.98856
▁divert	-9.98983
▁friends	-9.99053
rush	-9.99085
▁Fat	-9.99349
five	-9.99491
▁clums	-9.99494
▁relie	-9.995
pac	-9.9959
arine	-9.99656
▁Here	-9.99682
ice	-9.99916
▁pitch	-10.0013
▁discover	-10.0015
▁Wal	-10.0028
▁trapp	-10.0029
▁ages	-10.003
▁celebrat	-10.0039
▁exploitati	-10.0039
▁notion	-10.0062
nd	-10.0072
ced	-10.0074
▁cruel	-10.008
▁Broom	-10.011
tha	-10.0114
▁Luc	-10.0131
kin	-10.0138
wrenc	-10.0149
▁rough	-10.015
▁Cha	-10.0154
que	-10.0183
eur	-10.0185
▁tradition	-10.019
▁mysteri	-10.0192
▁dance	-10.0205
▁house	-10.0208
ties	-10.022
▁record	-10.0226
til	-10.0229
▁Ko	-10.0229
early	-10.0236
▁Far	-10.0236
▁report	-10.0248
talker	-10.0258
ntin	-10.0263
igni	-10.0264
▁ex	-10.0268
▁nei	-10.0281
tial	-10.0283
ically	-10.0284
▁Br	-10.0302
ext	-10.0307
ient	-10.0307
▁bottom	-10.0312
▁excu	-10.0313
▁holiday	-10.0318
▁landscape	-10.0318
▁Christmas	-10.0318
▁caution	-10.0318
▁similar	-10.0319
▁street	-10.0319
▁Iranian	-10.0319
▁villain	-10.0319
▁English	-10.0319
▁cloying	-10.0319
▁gangster	-10.0319
▁strict	-10.032
▁junk	-10.032
▁romp	-10.032
▁House	-10.0323
▁suspect	-10.0323
▁hi	-10.0323
▁mention	-10.0326
▁crude	-10.0328
▁hopeful	-10.033
▁overwr	-10.033
▁digital	-10.0332
▁heartbreaking	-10.0337
▁sober	-10.0338
▁account	-10.0346
▁Long	-10.0349
▁public	-10.035
▁Where	-10.0352
▁curious	-10.0356
▁specific	-10.0356
▁paper	-10.0357
▁obsession	-10.0357
▁Barry	-10.0358
▁gloss	-10.0363
foreign	-10.0365
▁breath	-10.0365
▁strike	-10.038
▁humorous	-10.0394
▁Harv	-10.0394
▁double	-10.0395
▁Zha	-10.041
▁ironic	-10.0411
face	-10.0416
▁stirr	-10.0425
▁grown	-10.0427
▁third	-10.0428
▁killer	-10.0431
▁Hard	-10.0436
▁difference	-10.0436
▁shocking	-10.0444
▁front	-10.0448
▁chilling	-10.045
▁wind	-10.0451
number	-10.0468
▁leav	-10.0475
ority	-10.0475
▁drawn	-10.0482
▁father	-10.0487
shop	-10.0494
length	-10.0496
▁po	-10.0501
▁mixed	-10.0508
▁loving	-10.0508
▁provid	-10.0526
▁Earn	-10.0531
ler	-10.0534
▁band	-10.0537
▁bother	-10.0542
▁suc	-10.0555
rate	-10.0564
▁race	-10.0568
▁admire	-10.0587
8	-10.0623
ces	-10.0631
▁buy	-10.0639
▁sa	-10.0644
guys	-10.0647
▁factor	-10.0648
▁nerve	-10.0657
els	-10.0663
ely	-10.0673
▁violent	-10.0679
no	-10.0687
lity	-10.0695
▁girls	-10.0699
▁Lane	-10.0708
▁forgot	-10.0713
▁games	-10.0714
▁generate	-10.0726
▁thinks	-10.074
turned	-10.0746
ha	-10.0776
▁Den	-10.0788
▁sophisticate	-10.0795
▁bodi	-10.081
ups	-10.0815
ugh	-10.0817
▁Ice	-10.0852
zing	-10.0862
▁Crime	-10.0864
▁Mill	-10.0868
tting	-10.0877
ith	-10.0885
▁Woo	-10.0889
▁persona	-10.0904
▁perform	-10.0923
core	-10.0926
▁rap	-10.0958
▁inde	-10.0974
▁night	-10.0979
▁pr	-10.0985
▁send	-10.0991
▁challenge	-10.0993
ittle	-10.0995
▁Frida	-10.0999
▁seek	-10.1006
thin	-10.1014
▁East	-10.1015
▁fa	-10.1029
▁finding	-10.103
ington	-10.1032
▁knowing	-10.1034
▁weight	-10.1051
▁bite	-10.1076
▁quest	-10.1086
ears	-10.1087
▁preposterous	-10.1088
ky	-10.1088
▁transform	-10.1088
▁degree	-10.1088
▁thousand	-10.1088
▁sugar	-10.1088
▁Christian	-10.1088
▁plodding	-10.1088
▁background	-10.1089
▁Bartle	-10.109
▁collection	-10.109
▁contrivance	-10.1091
▁dangerous	-10.1091
▁astonishing	-10.1091
▁Sex	-10.1092
▁smug	-10.1094
▁Reno	-10.1094
▁Robin	-10.1096
▁captivating	-10.1097
▁Hill	-10.1097
▁Wind	-10.1099
▁graphic	-10.1101
▁Wash	-10.1102
▁bigger	-10.1103
▁revelation	-10.1104
▁caper	-10.1104
▁pathetic	-10.1104
▁Harris	-10.1106
▁portrayal	-10.1109
▁treasure	-10.111
▁merit	-10.111
▁artful	-10.111
▁crass	-10.112
▁Still	-10.1121
▁smooth	-10.1122
▁corn	-10.1128
esque	-10.1128
▁early	-10.1133
▁blow	-10.1134
▁Call	-10.1143
cino	-10.115
▁decided	-10.1152
▁Swim	-10.1158
▁choose	-10.1161
ncy	-10.1163
▁Troubl	-10.1164
▁path	-10.1165
faith	-10.1167
▁abuse	-10.1171
holes	-10.1172
ious	-10.1173
▁hop	-10.1177
▁depend	-10.1179
▁identity	-10.1181
▁1	-10.1182
▁pat	-10.1182
▁gritt	-10.1187
▁linger	-10.1188
▁tap	-10.119
▁Off	-10.119
coming	-10.1203
▁assured	-10.1208
▁thematic	-10.1208
▁product	-10.121
▁silli	-10.121
▁string	-10.1227
▁fo	-10.1231
▁appropriate	-10.1236
▁tour	-10.1236
▁border	-10.1237
▁ga	-10.1237
70	-10.1241
writer	-10.125
▁Stu	-10.1257
▁Fear	-10.1263
▁Reig	-10.1264
▁retrea	-10.1273
ior	-10.1292
ek	-10.1295
▁disast	-10.1304
▁virtue	-10.1305
TV	-10.1311
▁belong	-10.1312
▁content	-10.1313
▁becom	-10.1314
weight	-10.1316
▁technolog	-10.1325
▁thrilling	-10.1329
▁Gangs	-10.1336
look	-10.1345
▁sides	-10.1346
▁Ri	-10.135
▁fairy	-10.1364
▁wall	-10.1365
ament	-10.1397
alone	-10.1409
▁sink	-10.141
aged	-10.1413
▁literal	-10.1415
▁Mal	-10.1421
▁push	-10.1431
▁nast	-10.1453
G	-10.1455
rely	-10.1469
▁lived	-10.1477
▁literar	-10.148
▁tight	-10.1484
deed	-10.1484
▁9	-10.1493
▁Water	-10.1502
▁decade	-10.1503
▁convince	-10.1506
▁distance	-10.1509
sion	-10.1513
▁distinct	-10.1531
▁pic	-10.1545
▁fool	-10.1547
▁card	-10.1561
any	-10.1561
ook	-10.1565
ag	-10.1567
▁Make	-10.1572
▁Cla	-10.1577
▁dud	-10.1579
▁tim	-10.158
▁logic	-10.1598
▁rush	-10.1599
berg	-10.1601
▁patien	-10.1606
atic	-10.1608
▁credib	-10.1609
▁fantastic	-10.1614
ette	-10.1632
▁control	-10.1633
▁Sm	-10.1639
ding	-10.1642
▁11	-10.1658
▁lea	-10.1667
▁Run	-10.1683
rage	-10.1691
loses	-10.1705
H	-10.1706
▁ru	-10.1728
4	-10.1761
lia	-10.1776
pan	-10.178
▁Vin	-10.1783
▁creativ	-10.1794
▁mental	-10.1797
ied	-10.1798
▁dreams	-10.1804
▁hook	-10.1813
appy	-10.1814
▁Die	-10.1814
ery	-10.1834
▁Gold	-10.1835
end	-10.1836
▁capabl	-10.1844
▁cult	-10.1846
▁bone	-10.186
▁teenage	-10.1861
meaning	-10.1878
▁Frank	-10.1878
roll	-10.1883
eless	-10.1895
▁prop	-10.1898
▁wa	-10.1904
▁curio	-10.1918
▁compassion	-10.1919
▁lose	-10.192
$	-10.1921
▁ingredient	-10.1921
▁intermittent	-10.1921
▁Hopkins	-10.1921
▁sensibilit	-10.1921
▁vague	-10.1921
▁ghost	-10.1921
▁uncomfortabl	-10.1921
▁encounter	-10.1921
▁marvel	-10.1921
▁grasp	-10.1922
▁heartwarming	-10.1922
▁delicious	-10.1922
▁dynamic	-10.1922
▁fluff	-10.1922
XX	-10.1922
▁Blood	-10.1923
▁raunch	-10.1923
▁Film	-10.1924
▁dazzling	-10.1924
▁false	-10.1924
▁mechanic	-10.1925
▁uninspir	-10.1926
▁current	-10.1926
▁diversion	-10.1927
▁devastating	-10.1927
▁trite	-10.1929
▁slasher	-10.193
▁breez	-10.1932
▁startling	-10.1934
▁Hugh	-10.1937
▁Out	-10.1938
alyze	-10.1938
table	-10.1939
▁frightening	-10.1939
▁includ	-10.194
▁redeem	-10.1942
luster	-10.1944
▁resonan	-10.1946
▁meandering	-10.1949
▁brother	-10.1952
▁connection	-10.1956
▁outside	-10.1959
▁jealous	-10.1963
▁artificial	-10.1964
▁Fatal	-10.1965
▁justify	-10.1967
▁significant	-10.197
▁reaction	-10.1979
▁popular	-10.1982
▁sensual	-10.1986
▁candy	-10.1989
▁amused	-10.1999
▁grip	-10.2001
▁swing	-10.2002
wrote	-10.2002
▁pile	-10.2003
▁Fest	-10.2004
▁Great	-10.2005
▁extend	-10.2005
▁deny	-10.2009
▁parable	-10.2014
▁Barber	-10.2014
hew	-10.2015
▁buoy	-10.202
▁resist	-10.2029
▁chuckle	-10.2036
ages	-10.2041
▁cheer	-10.2044
v	-10.2045
pped	-10.2046
▁Scott	-10.2053
▁Wa	-10.2058
▁reduce	-10.2083
▁Mo	-10.2086
▁Hart	-10.2087
▁load	-10.2099
▁traditional	-10.2105
▁likable	-10.2114
▁clash	-10.2127
American	-10.2135
▁gut	-10.2135
wacky	-10.2142
la	-10.2143
▁drea	-10.2144
▁shooting	-10.2146
▁clari	-10.2154
▁chees	-10.2159
▁starr	-10.2166
▁competent	-10.2168
oyan	-10.217
▁hot	-10.217
▁risk	-10.2187
K	-10.2188
▁Mad	-10.22
▁fly	-10.22
book	-10.22
ol	-10.221
▁fate	-10.2217
▁Sp	-10.2221
joint	-10.2223
▁pit	-10.2228
O	-10.2231
dimension	-10.2245
mission	-10.2266
mo	-10.2268
▁Charl	-10.2278
▁extra	-10.2283
gio	-10.2287
▁Master	-10.2292
▁dare	-10.2307
ans	-10.2318
ations	-10.2325
▁earn	-10.235
▁tast	-10.2371
cute	-10.2372
▁Pl	-10.2374
▁Pe	-10.238
▁cost	-10.2386
▁Sam	-10.2408
▁featur	-10.241
▁Mik	-10.2415
▁surviv	-10.2421
▁poignanc	-10.2421
▁cour	-10.2423
llen	-10.2453
▁Tru	-10.2454
▁hang	-10.2459
▁neat	-10.2461
▁handle	-10.2466
▁hole	-10.2468
rian	-10.2476
▁bigge	-10.248
evil	-10.2488
stick	-10.2492
▁winds	-10.2493
place	-10.2523
▁player	-10.2523
come	-10.2523
udic	-10.2565
ffle	-10.2572
drum	-10.2573
film	-10.2578
▁Reg	-10.2603
▁court	-10.2635
▁awe	-10.2635
ttraction	-10.2636
ival	-10.2648
▁Fra	-10.2668
▁twi	-10.2668
▁notice	-10.267
born	-10.2675
▁poli	-10.2679
ps	-10.2686
▁youth	-10.2697
ense	-10.271
▁Jan	-10.2736
use	-10.2747
▁resemble	-10.2753
eath	-10.2756
art	-10.2759
bad	-10.276
▁topic	-10.2762
craft	-10.278
▁labor	-10.2789
▁freak	-10.279
▁sea	-10.2791
▁arts	-10.2792
ake	-10.2797
eke	-10.28
▁bla	-10.281
ast	-10.2811
7	-10.2811
▁include	-10.2815
▁drop	-10.2815
ok	-10.2819
▁Han	-10.2823
▁Schneider	-10.283
▁inexplicabl	-10.283
▁intricate	-10.283
▁elevate	-10.283
▁matinee	-10.283
▁remote	-10.283
▁Ghost	-10.283
▁bleak	-10.283
▁Dickens	-10.283
▁wannabe	-10.2831
▁stiff	-10.2831
▁homage	-10.2831
▁enormous	-10.2832
▁fierce	-10.2832
▁Trek	-10.2832
▁splendid	-10.2832
▁window	-10.2832
▁built	-10.2832
▁kiddie	-10.2833
▁pathos	-10.2833
▁explosion	-10.2834
▁handsome	-10.2834
▁ponder	-10.2834
inducing	-10.2835
▁Scooby	-10.2835
▁movement	-10.2836
▁pulp	-10.2836
▁ticket	-10.2836
▁sogg	-10.2836
▁achievement	-10.2837
▁Witch	-10.2837
▁embrace	-10.2838
▁repeated	-10.2838
▁revelat	-10.2839
▁inherent	-10.284
▁Yu	-10.2841
▁gender	-10.2842
▁accent	-10.2844
▁cutting	-10.2844
▁dysfunctional	-10.2845
▁theatrical	-10.2846
▁Look	-10.2846
▁forceful	-10.2847
▁Murder	-10.2847
▁marri	-10.2849
▁Wall	-10.2856
▁square	-10.2856
▁ruin	-10.2861
▁nightmare	-10.2863
▁preachy	-10.2867
▁le	-10.2869
▁student	-10.287
▁Extreme	-10.2871
▁lump	-10.2872
▁experiment	-10.2873
▁channel	-10.2876
▁uplift	-10.2876
▁Spider	-10.2876
▁humour	-10.2876
do	-10.2878
▁Russian	-10.2878
▁steal	-10.2879
writ	-10.2885
sive	-10.2893
▁carry	-10.2896
▁corner	-10.2896
▁food	-10.29
▁ear	-10.2902
▁tir	-10.2907
▁inane	-10.2908
▁stock	-10.2914
▁Hawk	-10.2923
orient	-10.2924
▁education	-10.2925
▁erotic	-10.293
▁Mark	-10.293
▁DV	-10.2931
▁maker	-10.2934
▁order	-10.294
▁teenager	-10.2947
▁Anne	-10.2948
▁Van	-10.2948
▁creation	-10.2949
▁precise	-10.295
▁vulgar	-10.2951
▁sla	-10.2954
implicit	-10.2955
▁urge	-10.2957
▁scare	-10.2958
▁wi	-10.296
▁sac	-10.2963
round	-10.2981
drama	-10.2989
▁Less	-10.2994
▁burst	-10.2998
rid	-10.2998
▁Bros	-10.3014
yam	-10.3029
▁En	-10.3031
▁earth	-10.3062
dish	-10.3074
▁Matt	-10.3076
▁accomplish	-10.3082
▁Rich	-10.3085
nity	-10.3086
ying	-10.3112
▁fu	-10.3115
ended	-10.3116
▁Sever	-10.3123
haps	-10.3125
▁cris	-10.3127
▁continu	-10.3131
▁199	-10.3135
▁cheat	-10.3135
aking	-10.3138
▁coheren	-10.3143
▁cause	-10.3145
board	-10.3159
▁Vi	-10.317
rium	-10.3184
▁baffl	-10.3205
ike	-10.3205
belief	-10.3209
eir	-10.3212
free	-10.3216
ents	-10.3219
▁forgive	-10.3221
▁sho	-10.3229
aked	-10.3229
brow	-10.3236
▁Pal	-10.3237
familiar	-10.3239
▁admit	-10.3243
mentary	-10.3256
▁sour	-10.3259
▁disguise	-10.3262
▁imagin	-10.3263
hold	-10.3267
met	-10.3267
ks	-10.3273
▁parad	-10.3273
der	-10.3275
ster	-10.3277
▁bi	-10.3288
oes	-10.329
▁Lil	-10.3297
boy	-10.3299
▁Fish	-10.3301
▁li	-10.3303
▁dispos	-10.3309
▁lift	-10.331
▁goal	-10.3316
ite	-10.3317
▁sophisticat	-10.3332
▁Fa	-10.3334
▁Suff	-10.3343
▁shape	-10.3349
▁prim	-10.3363
▁Son	-10.3365
▁Bill	-10.3373
▁Bla	-10.3377
caust	-10.3379
▁aware	-10.3387
▁nerv	-10.3413
upper	-10.3442
▁Real	-10.3443
▁dose	-10.3445
▁luck	-10.3446
▁Michel	-10.3454
ache	-10.3466
ions	-10.348
▁sport	-10.3482
▁par	-10.35
▁Hay	-10.3507
3	-10.3514
▁Fun	-10.3517
▁Am	-10.3529
▁Joe	-10.3544
00	-10.3554
▁accomplishe	-10.3555
▁produc	-10.3579
▁Wo	-10.3588
▁fr	-10.3603
▁Jer	-10.3609
range	-10.3625
▁captur	-10.3643
▁Harr	-10.3658
▁Jacqu	-10.3676
▁believab	-10.3678
▁prison	-10.3689
ttle	-10.3691
ppers	-10.37
udo	-10.3701
▁Pow	-10.3707
ped	-10.3711
port	-10.3712
▁Whe	-10.3712
▁uncom	-10.3717
▁categor	-10.3737
aga	-10.3743
▁Kiss	-10.3753
xed	-10.3762
▁crap	-10.3769
▁humanit	-10.3787
▁15	-10.3789
onic	-10.3811
▁Don	-10.3816
Ya	-10.3827
▁Chabrol	-10.383
▁Chicago	-10.383
▁gimmick	-10.383
▁implausib	-10.383
▁obnoxious	-10.383
▁unabashed	-10.383
▁comparison	-10.383
▁demographic	-10.383
▁inevitabl	-10.383
▁ingenious	-10.383
▁inhabit	-10.383
▁Irwin	-10.383
▁Sugar	-10.383
▁enthusiasm	-10.383
▁random	-10.383
▁unimaginative	-10.383
▁possibilit	-10.383
▁horrifying	-10.383
▁elaborate	-10.383
▁intoxicating	-10.383
▁tongue	-10.383
▁husband	-10.3831
▁disgust	-10.3831
▁casual	-10.3831
▁legend	-10.3831
▁hollow	-10.3831
▁decide	-10.3831
▁scatter	-10.3831
▁pedest	-10.3831
▁dreadful	-10.3831
▁dismiss	-10.3832
▁Strange	-10.3833
▁brief	-10.3833
▁smack	-10.3834
▁Worth	-10.3834
▁marvelous	-10.3834
▁Philip	-10.3835
▁attitude	-10.3835
▁endeavor	-10.3835
▁aimless	-10.3836
▁Dream	-10.3836
▁creature	-10.3836
▁boast	-10.3836
▁distract	-10.3837
▁expert	-10.3837
▁instant	-10.3841
▁Jean	-10.3842
▁comfortabl	-10.3843
ibal	-10.3844
▁sister	-10.3844
▁restrain	-10.3848
▁frank	-10.3849
▁51	-10.3849
▁proper	-10.3849
▁eloquent	-10.385
▁muddle	-10.3856
▁crisp	-10.3861
▁Fan	-10.3863
▁spring	-10.3864
▁ball	-10.3866
▁blast	-10.3867
▁effortless	-10.3867
▁hide	-10.3867
▁witness	-10.3868
▁Have	-10.387
ming	-10.3871
▁listen	-10.3871
▁fee	-10.3876
▁apply	-10.3876
▁buff	-10.3877
▁laughing	-10.3877
▁glorious	-10.3877
▁correct	-10.3879
▁vampire	-10.388
▁minimal	-10.388
▁broken	-10.3882
▁jolt	-10.3884
▁marginal	-10.3888
▁contain	-10.3889
▁borrow	-10.3891
▁aggressive	-10.3893
iz	-10.3894
▁larger	-10.3897
▁vein	-10.3897
▁Haw	-10.3902
▁machine	-10.3906
▁review	-10.3908
▁alternate	-10.3909
▁surrounding	-10.391
▁Sunda	-10.391
hilosophical	-10.3915
▁Manh	-10.3916
heir	-10.393
ide	-10.3931
▁nail	-10.3935
▁stereotype	-10.3935
▁due	-10.3937
▁adequate	-10.3943
▁theatre	-10.3944
▁commit	-10.3944
comedy	-10.3945
▁box	-10.3947
▁million	-10.3951
▁consciousness	-10.3951
bo	-10.3951
▁Give	-10.396
▁copy	-10.3969
▁tend	-10.3971
des	-10.3974
iling	-10.3976
▁menac	-10.3977
▁Kapu	-10.3979
raid	-10.3979
un	-10.3988
stic	-10.3989
▁Warm	-10.3989
▁Hell	-10.399
▁lovers	-10.3991
cover	-10.3991
▁layer	-10.3993
▁Live	-10.3997
▁3	-10.4
ndon	-10.4003
ded	-10.4004
▁office	-10.4005
▁Shakespeare	-10.4011
▁physical	-10.402
▁West	-10.403
lo	-10.4031
▁noneth	-10.4035
ating	-10.4037
▁intens	-10.405
▁Gre	-10.4051
▁Mel	-10.4065
▁Fi	-10.4067
▁objectiv	-10.4084
▁fake	-10.4091
lines	-10.4093
▁Ha	-10.4114
sai	-10.4121
▁lower	-10.4123
▁pleasing	-10.4124
rish	-10.4132
▁fantasi	-10.4134
▁ordina	-10.4144
ore	-10.4148
promising	-10.415
▁calculat	-10.4153
ourne	-10.4156
▁gradua	-10.4157
▁charge	-10.4165
▁cable	-10.4165
list	-10.418
▁stretch	-10.419
ta	-10.4194
▁fla	-10.4194
natural	-10.4215
worth	-10.4221
kov	-10.4241
oney	-10.4255
▁celebrate	-10.4258
video	-10.4272
prise	-10.428
▁sto	-10.4285
ern	-10.4295
▁Bu	-10.4298
intention	-10.43
60	-10.431
▁Prov	-10.4314
lor	-10.4315
▁Hot	-10.4323
▁Sum	-10.4329
oman	-10.4329
laris	-10.4337
▁presen	-10.4347
necessar	-10.4351
▁honor	-10.4369
ask	-10.4374
▁examine	-10.4379
▁clumsi	-10.4379
▁Bi	-10.4387
▁Can	-10.4389
▁limp	-10.439
▁fanci	-10.439
done	-10.4391
together	-10.4396
▁understate	-10.4398
grade	-10.4403
▁ignore	-10.4406
▁pun	-10.4428
ection	-10.4428
But	-10.4436
▁gang	-10.4436
mination	-10.4443
am	-10.4452
rath	-10.446
▁flo	-10.4462
▁See	-10.4472
▁Start	-10.449
▁award	-10.4501
▁Kur	-10.4508
▁hy	-10.451
nan	-10.4513
▁198	-10.4519
▁Brother	-10.452
▁lie	-10.4522
▁bog	-10.4523
▁Ala	-10.4525
▁Pay	-10.4538
lie	-10.454
▁shine	-10.4545
ov	-10.4546
▁cho	-10.4548
▁national	-10.4557
▁express	-10.4569
witt	-10.4572
▁slip	-10.4606
ig	-10.4621
▁hype	-10.4623
▁integr	-10.4628
▁phone	-10.4631
having	-10.4632
flinching	-10.4636
ors	-10.4642
ace	-10.4645
ustin	-10.4657
loud	-10.4662
▁ju	-10.4666
▁197	-10.4676
▁desperat	-10.4681
▁ro	-10.4688
▁Leg	-10.4696
ump	-10.4698
▁Dani	-10.4701
uff	-10.4709
▁eno	-10.471
▁Ric	-10.4712
bilit	-10.4712
▁lend	-10.4713
▁bath	-10.4722
▁spen	-10.4723
▁mu	-10.4724
akes	-10.4731
ged	-10.4731
▁Tara	-10.4739
▁instinct	-10.474
▁Wi	-10.4758
▁multi	-10.4764
▁30	-10.4767
▁myth	-10.4769
▁friend	-10.4772
ab	-10.4773
▁blue	-10.478
stract	-10.4782
ourse	-10.4785
ering	-10.4807
▁die	-10.4812
▁Ku	-10.4813
earing	-10.4815
▁Cinema	-10.4823
▁bear	-10.4824
alan	-10.4839
▁torture	-10.4839
▁Cu	-10.4845
▁despair	-10.4848
▁Ka	-10.4849
war	-10.486
▁scream	-10.4864
▁skip	-10.4876
rk	-10.4885
▁continue	-10.4894
▁End	-10.4895
ved	-10.4897
tuck	-10.491
magine	-10.4919
fan	-10.4921
▁primar	-10.4924
▁involv	-10.4935
▁Rob	-10.4936
knowledge	-10.4937
▁depart	-10.494
▁Schaef	-10.4941
▁claustrophobi	-10.4941
▁irresistibl	-10.4941
▁vintage	-10.4941
▁controvers	-10.4941
▁unbearabl	-10.4941
▁consequence	-10.4941
▁installment	-10.4941
mpeccabl	-10.4941
▁backdrop	-10.4941
▁subplot	-10.4941
▁existential	-10.4941
▁monoton	-10.4942
▁European	-10.4942
▁sentence	-10.4942
▁glib	-10.4942
▁Remember	-10.4942
▁German	-10.4942
▁unforgettabl	-10.4942
▁environment	-10.4942
GI	-10.4942
▁spontane	-10.4942
▁Return	-10.4942
▁accurate	-10.4943
▁immediate	-10.4943
▁succumb	-10.4943
▁murk	-10.4944
▁Sister	-10.4944
▁squander	-10.4944
▁drab	-10.4944
▁grab	-10.4944
▁sudden	-10.4945
▁collective	-10.4945
▁device	-10.4945
▁ponderous	-10.4946
▁unoriginal	-10.4946
▁variation	-10.4946
▁rival	-10.4947
▁depict	-10.4947
▁Ecks	-10.4947
▁unnerv	-10.4948
▁Half	-10.4949
▁rapid	-10.4949
▁Kenne	-10.495
▁reject	-10.4951
▁aspiration	-10.4954
▁Light	-10.4954
▁shameless	-10.4955
▁Korean	-10.4955
▁six	-10.4956
▁Freak	-10.4956
▁Side	-10.4959
▁yearning	-10.4959
▁paranoi	-10.4961
▁Camp	-10.4962
▁warning	-10.4962
▁independent	-10.4962
▁grating	-10.4962
▁hyper	-10.4965
▁vast	-10.4966
▁invest	-10.4967
▁Roh	-10.4967
holds	-10.4969
▁flow	-10.497
▁reference	-10.497
▁pretend	-10.4974
▁screenwrit	-10.4976
▁drown	-10.498
▁blank	-10.4983
▁perverse	-10.4983
ered	-10.4984
▁wound	-10.4985
▁chopp	-10.4988
▁text	-10.4988
▁Other	-10.4993
▁Eg	-10.4995
▁insulting	-10.4996
▁stylistic	-10.4997
▁shift	-10.4998
▁sweep	-10.5003
rity	-10.5007
bound	-10.5007
▁pan	-10.501
eacher	-10.5011
▁serial	-10.5012
▁arrest	-10.5016
▁came	-10.5016
▁web	-10.5016
▁stil	-10.5018
▁screaming	-10.5022
▁Jona	-10.5022
feld	-10.5022
▁potent	-10.5028
han	-10.5029
attan	-10.5035
iccol	-10.5038
▁brand	-10.5039
fest	-10.5043
▁comment	-10.5045
▁patient	-10.5046
▁gore	-10.5048
▁ego	-10.5052
▁resembl	-10.5063
▁smarter	-10.5066
▁miserabl	-10.5068
▁substitute	-10.5071
▁Tay	-10.5072
▁resolute	-10.5077
▁buddy	-10.5081
▁Spirit	-10.5085
▁Hann	-10.5087
opic	-10.509
os	-10.5094
▁parod	-10.5096
▁bump	-10.5097
▁location	-10.5103
taken	-10.5106
▁knock	-10.5113
▁noble	-10.5121
▁sympathetic	-10.5131
▁icon	-10.5133
ave	-10.5141
▁park	-10.5142
oc	-10.5145
▁imp	-10.5145
▁melanchol	-10.5146
more	-10.5147
▁pair	-10.5147
▁Gra	-10.5149
▁weep	-10.5149
▁Age	-10.5159
▁Kin	-10.5164
▁building	-10.5166
▁hint	-10.5166
▁Jud	-10.5172
▁Impost	-10.5174
rew	-10.5178
▁Wise	-10.5179
▁fam	-10.5182
▁Part	-10.5186
phen	-10.5192
▁critical	-10.5192
▁mouth	-10.5194
▁heavi	-10.5208
ja	-10.5215
▁distinguish	-10.5215
▁Wol	-10.5221
wear	-10.5224
vern	-10.5232
▁Hol	-10.5235
ux	-10.524
trip	-10.5243
▁pot	-10.5247
▁jar	-10.5252
▁Sor	-10.5252
ella	-10.5252
▁recognize	-10.5263
ell	-10.5264
▁Tuck	-10.5266
joke	-10.5267
▁offend	-10.5267
ilty	-10.5277
▁page	-10.5279
▁Lack	-10.5281
▁height	-10.5286
▁Min	-10.5291
▁reflect	-10.5291
▁train	-10.5296
▁satisfie	-10.5297
▁195	-10.5297
▁Rose	-10.53
older	-10.5303
anks	-10.5319
▁styl	-10.5319
▁deni	-10.5327
▁substan	-10.5343
▁practical	-10.5359
sel	-10.5361
med	-10.5363
▁Sav	-10.5367
▁dub	-10.5381
tech	-10.5386
▁wood	-10.5397
▁ten	-10.5398
▁phon	-10.5402
▁evoke	-10.5405
▁la	-10.5406
▁Bur	-10.5414
ash	-10.5425
▁Jess	-10.5432
▁Pott	-10.5436
thriller	-10.5437
lace	-10.5442
idden	-10.5446
▁Cann	-10.5453
▁danc	-10.5454
we	-10.5457
arrow	-10.5462
miss	-10.5484
▁neo	-10.5489
▁inconsisten	-10.5499
gy	-10.5501
▁Stevens	-10.5516
▁ch	-10.5516
▁hoot	-10.5517
▁pi	-10.5528
▁ripe	-10.5537
atur	-10.5539
what	-10.554
▁refuse	-10.5545
▁uneas	-10.5548
▁spite	-10.5549
sentimental	-10.555
ca	-10.5553
▁clima	-10.5554
▁refus	-10.5555
▁Nai	-10.5556
▁spice	-10.5558
▁bio	-10.5564
ami	-10.5569
jerk	-10.5587
op	-10.559
▁Hall	-10.5592
▁Cl	-10.5597
aware	-10.561
▁Kos	-10.5612
▁Fo	-10.5613
blown	-10.5615
▁ham	-10.5618
gging	-10.5619
aut	-10.5628
▁store	-10.5628
▁clos	-10.5635
ried	-10.5636
play	-10.5637
pity	-10.564
▁Ju	-10.5642
orious	-10.565
19	-10.5666
▁hands	-10.5674
ns	-10.5677
▁determine	-10.5686
mill	-10.569
▁scen	-10.5695
convincing	-10.5696
ption	-10.5698
ama	-10.5701
see	-10.571
▁Snow	-10.5731
▁Je	-10.5744
▁Cub	-10.5745
hand	-10.5746
▁cla	-10.5752
fe	-10.5753
lies	-10.5763
▁stretche	-10.5767
format	-10.577
shot	-10.5772
predictabl	-10.5778
▁ba	-10.5782
▁nation	-10.5791
▁lad	-10.5794
cking	-10.5803
lled	-10.5811
▁Aust	-10.5818
▁Ball	-10.5821
▁fatal	-10.5832
ill	-10.585
▁Sandr	-10.585
van	-10.5851
▁scar	-10.5851
▁creep	-10.5854
rance	-10.5878
tale	-10.5881
▁predictab	-10.5884
▁belly	-10.5906
▁weigh	-10.5914
▁mile	-10.5934
allistic	-10.5944
pic	-10.5946
▁indulgent	-10.596
▁empti	-10.596
▁Rams	-10.5981
▁fascinati	-10.5992
▁mov	-10.5996
▁bus	-10.6001
view	-10.6018
fortunate	-10.6019
cut	-10.6019
▁wave	-10.6027
ympto	-10.6035
▁100	-10.6038
▁Ex	-10.6045
▁lega	-10.6048
ath	-10.6054
iar	-10.6058
▁philosoph	-10.6063
▁satiric	-10.6066
▁stereotyp	-10.6087
▁surround	-10.6092
▁Smo	-10.6093
▁snow	-10.6095
▁Oft	-10.6103
▁overwhelm	-10.6106
nal	-10.6115
ization	-10.6118
▁divers	-10.612
near	-10.6126
scop	-10.6127
mme	-10.6128
sm	-10.6133
▁satisfy	-10.6137
▁Try	-10.6138
letis	-10.6138
▁Charli	-10.614
▁Par	-10.6142
▁object	-10.6148
▁idiot	-10.615
stein	-10.6151
▁amuse	-10.6155
▁sell	-10.6162
▁El	-10.6175
▁heal	-10.6183
▁artific	-10.6191
▁condescen	-10.6191
▁Elizabeth	-10.6191
▁enthrall	-10.6191
▁miracle	-10.6191
▁technique	-10.6191
▁tremendous	-10.6191
▁unfulfill	-10.6191
▁Australia	-10.6191
▁redempti	-10.6191
▁ultra	-10.6191
▁immense	-10.6191
▁regret	-10.6191
▁secret	-10.6191
▁insecur	-10.6191
▁optimis	-10.6191
▁Amazing	-10.6191
▁guarantee	-10.6191
▁Schwar	-10.6192
▁martial	-10.6192
▁explain	-10.6192
▁argument	-10.6192
▁didactic	-10.6192
▁seductive	-10.6193
▁deceptive	-10.6193
▁exotic	-10.6193
▁Smart	-10.6193
▁First	-10.6193
▁Quiet	-10.6193
▁fault	-10.6193
▁21	-10.6193
▁favorite	-10.6193
▁schmaltz	-10.6193
▁anchor	-10.6194
▁system	-10.6194
empower	-10.6194
▁detach	-10.6194
▁conversation	-10.6194
▁peek	-10.6194
▁harsh	-10.6194
▁crack	-10.6195
▁chronicle	-10.6195
▁imitation	-10.6195
▁interview	-10.6197
▁McG	-10.6197
▁shapeless	-10.6198
▁garb	-10.6198
▁disappointment	-10.6199
▁bullet	-10.62
▁African	-10.62
▁evidence	-10.6202
▁savv	-10.6202
▁skillful	-10.6203
▁semi	-10.6204
▁yawn	-10.6206
▁Pax	-10.6206
▁bang	-10.6206
▁glass	-10.6207
▁irony	-10.6208
▁steam	-10.6208
▁Bridge	-10.6208
▁conceit	-10.6209
▁Lan	-10.621
▁fleeting	-10.621
ri	-10.621
ew	-10.6212
▁lean	-10.6215
▁soulless	-10.6217
▁fourth	-10.6217
▁Down	-10.6218
▁suspend	-10.6218
▁hurt	-10.6219
▁depress	-10.6222
▁liberal	-10.6224
▁Maid	-10.6225
▁police	-10.6227
▁deliberate	-10.6231
▁religio	-10.6233
▁chew	-10.6234
da	-10.6235
▁advantage	-10.6239
▁exhausting	-10.6242
reasure	-10.6243
achron	-10.6243
▁crash	-10.6245
▁clean	-10.6249
▁Read	-10.6249
▁sophomor	-10.6251
▁intent	-10.6252
▁hypnotic	-10.6252
▁flims	-10.6255
▁influence	-10.6257
▁Super	-10.626
▁Seld	-10.6261
▁witless	-10.6262
cksto	-10.6262
▁dope	-10.6262
▁drink	-10.6265
▁Wait	-10.6269
▁prevent	-10.627
▁Holo	-10.6274
▁snapp	-10.6276
▁overwhelming	-10.6277
▁reminder	-10.6288
▁stumble	-10.6289
▁bomb	-10.6293
▁Hunt	-10.6293
▁Jim	-10.6295
▁visit	-10.6297
▁tried	-10.6307
▁tune	-10.6312
▁Dana	-10.6313
udacious	-10.6313
fellow	-10.6315
▁host	-10.6316
▁Mile	-10.632
▁splash	-10.632
▁confident	-10.6323
ap	-10.6323
▁Let	-10.6329
▁Simon	-10.633
▁animal	-10.6334
▁swallow	-10.6334
▁mush	-10.6343
▁session	-10.6344
▁passionate	-10.6344
▁wrapp	-10.6346
▁dragon	-10.6347
▁grind	-10.6355
▁reflection	-10.6357
▁luna	-10.6361
▁Thanks	-10.6365
▁define	-10.6367
pecul	-10.6372
▁athlete	-10.6373
igo	-10.6373
▁Famil	-10.6374
▁rank	-10.6374
▁Deu	-10.6376
▁haunted	-10.6378
bi	-10.6384
▁dia	-10.6386
even	-10.6391
▁festiv	-10.6391
▁recycl	-10.6394
construction	-10.6397
▁worry	-10.64
▁Anders	-10.6404
▁Rod	-10.641
▁articulate	-10.6415
▁multiple	-10.6417
▁Land	-10.6423
▁trust	-10.6427
▁timeless	-10.6438
dition	-10.6438
▁Bruc	-10.6441
▁explor	-10.6444
▁gear	-10.645
▁Servi	-10.6451
▁obscure	-10.6467
▁gent	-10.6468
▁lesser	-10.6476
▁80	-10.6478
too	-10.6488
avor	-10.6489
▁Say	-10.6493
▁sum	-10.6494
▁vol	-10.6497
ody	-10.65
▁realiz	-10.6527
girl	-10.6536
▁Mon	-10.6547
rom	-10.6548
▁Kath	-10.6551
▁charmer	-10.6561
itten	-10.657
▁Shad	-10.6578
▁Ram	-10.658
breaking	-10.6607
▁rehash	-10.6608
▁narrat	-10.6612
ood	-10.6615
▁hearts	-10.6626
▁Gla	-10.6626
▁Pie	-10.6632
▁impress	-10.6642
▁7	-10.6649
stand	-10.6655
▁13	-10.6656
▁cu	-10.6657
ijin	-10.6658
tical	-10.6658
putting	-10.6675
ught	-10.6688
▁attract	-10.67
▁jump	-10.6701
▁comprehensi	-10.6705
▁numbing	-10.6709
cratch	-10.6714
▁meets	-10.6715
▁loneli	-10.6717
ons	-10.672
▁auto	-10.6723
spare	-10.6729
▁despi	-10.6733
▁Nar	-10.674
▁giv	-10.6742
▁varie	-10.6742
rote	-10.6749
ric	-10.6752
▁Leon	-10.676
ica	-10.6795
▁matur	-10.6795
▁ethnic	-10.6807
▁Fe	-10.6807
▁prefer	-10.6823
▁stink	-10.6827
tner	-10.683
▁Cal	-10.6843
▁valu	-10.6843
ging	-10.685
▁devo	-10.6851
6	-10.6873
ddy	-10.6875
▁aching	-10.6875
pinning	-10.6884
anta	-10.6887
9	-10.6889
power	-10.6889
▁tur	-10.6891
▁Whit	-10.6896
flick	-10.6906
float	-10.6921
▁pu	-10.6921
▁Gar	-10.6932
▁burn	-10.6946
vary	-10.6955
otic	-10.6956
▁Eve	-10.6969
aw	-10.6989
unk	-10.6997
affirm	-10.7002
▁Sho	-10.7006
pulse	-10.702
▁exception	-10.7023
▁Fre	-10.7028
▁pleasurabl	-10.7032
▁Yi	-10.7042
Q	-10.7055
member	-10.7062
my	-10.707
▁slog	-10.7079
chy	-10.7081
pa	-10.7092
▁expens	-10.7096
▁Moon	-10.7106
mpire	-10.7111
▁Ah	-10.7113
▁dress	-10.7115
bum	-10.7117
position	-10.7123
▁failing	-10.7135
plete	-10.7137
▁serv	-10.7142
▁40	-10.7145
▁Franc	-10.7155
nfortunate	-10.7162
zene	-10.7163
unny	-10.7173
▁pointed	-10.718
▁vari	-10.7193
cale	-10.7212
▁Tr	-10.7213
▁Mary	-10.7221
abbit	-10.7224
Y	-10.7232
▁misse	-10.7242
▁farc	-10.7249
min	-10.7263
▁Jewis	-10.7282
▁Pra	-10.7282
▁respectabl	-10.7287
ogue	-10.729
▁provoke	-10.7292
evolution	-10.7294
▁chil	-10.7295
ins	-10.7299
▁Wit	-10.7306
▁Div	-10.732
else	-10.7323
▁chao	-10.7326
▁quit	-10.7328
hy	-10.7333
new	-10.7338
tten	-10.7348
gent	-10.7349
▁revolution	-10.7351
▁producer	-10.7355
tchie	-10.7355
▁Cat	-10.7356
▁manu	-10.7357
▁Dia	-10.7362
▁Entertain	-10.7362
kill	-10.7367
▁surf	-10.7369
▁plott	-10.7384
io	-10.7388
▁stag	-10.7393
▁recycle	-10.7396
umbers	-10.7398
eral	-10.7404
whi	-10.7407
gs	-10.742
▁Chou	-10.7434
story	-10.744
▁subtlet	-10.7443
▁endur	-10.7452
mous	-10.7455
▁Bett	-10.7466
tal	-10.7466
cue	-10.747
ki	-10.7482
▁sor	-10.7485
▁Moth	-10.7488
▁yes	-10.7489
pez	-10.749
▁brillian	-10.7508
ahl	-10.7508
▁guilt	-10.7531
orous	-10.7534
▁prov	-10.7538
▁meat	-10.7545
ement	-10.7546
anda	-10.7558
▁touche	-10.7567
▁fac	-10.7575
mper	-10.7577
▁ja	-10.758
ease	-10.7585
▁moviego	-10.76
▁convolut	-10.76
itive	-10.7602
▁psycholog	-10.7608
▁intima	-10.7616
ger	-10.7617
ury	-10.7618
▁hilari	-10.7618
cisive	-10.7618
▁Steve	-10.7618
▁choreograph	-10.762
▁extravaganza	-10.762
▁haphazard	-10.762
▁infectious	-10.762
▁infuriating	-10.762
▁oppressive	-10.762
▁refugee	-10.762
▁Adventure	-10.762
▁conven	-10.762
▁idiosyncra	-10.762
▁maddening	-10.762
▁anguish	-10.762
▁Importan	-10.762
▁incident	-10.762
▁Bogdan	-10.762
▁enlighten	-10.762
▁fulfill	-10.762
▁exaggerat	-10.762
▁criminal	-10.762
▁perceptive	-10.762
▁Personal	-10.762
▁McK	-10.762
▁confirm	-10.762
▁discuss	-10.762
▁blockbuster	-10.762
▁Middle	-10.762
▁Company	-10.762
▁subculture	-10.762
▁Prophe	-10.762
▁Private	-10.7621
▁inconsequential	-10.7621
Drunk	-10.7621
▁1960	-10.7621
▁verbal	-10.7621
▁Travel	-10.7621
▁complain	-10.7621
▁Western	-10.7621
▁uncertain	-10.7621
▁neighbor	-10.7621
▁resonate	-10.7621
▁jazz	-10.7621
▁banter	-10.7622
▁bracing	-10.7622
▁compensate	-10.7622
▁interpretation	-10.7622
▁1970	-10.7622
▁Gib	-10.7622
▁Friend	-10.7622
▁Feather	-10.7623
▁neglect	-10.7623
▁undercut	-10.7623
▁resort	-10.7623
bag	-10.7623
▁Doug	-10.7624
▁Stock	-10.7624
▁rambling	-10.7624
▁triangle	-10.7624
▁motivation	-10.7624
▁resolution	-10.7624
▁frustration	-10.7625
▁Talk	-10.7625
▁Forget	-10.7625
▁payoff	-10.7625
▁medium	-10.7626
▁wicked	-10.7626
▁Ferr	-10.7626
▁Nicol	-10.7626
▁Cross	-10.7626
▁Mira	-10.7627
▁address	-10.7628
▁function	-10.7628
▁foul	-10.7629
▁safe	-10.7629
▁fl	-10.7629
▁Weight	-10.7629
▁enigma	-10.763
▁transport	-10.763
▁magnificent	-10.763
▁Qu	-10.7631
▁punish	-10.7631
▁toilet	-10.7632
▁gasp	-10.7633
▁unknow	-10.7633
▁fuzz	-10.7635
▁combat	-10.7636
▁Scar	-10.7636
▁Cool	-10.7636
▁joyless	-10.764
▁feast	-10.764
▁trailer	-10.7643
cadem	-10.7643
▁daytime	-10.7643
▁sacrifice	-10.7644
▁Again	-10.7645
▁inject	-10.7645
▁scratch	-10.7647
▁danger	-10.7648
▁tasteless	-10.7648
▁Latin	-10.765
▁exceeding	-10.7651
▁appall	-10.7651
▁hopeless	-10.7651
▁lush	-10.7652
▁Stone	-10.7652
▁jumble	-10.7653
▁comedian	-10.7655
pole	-10.7656
▁weakness	-10.7656
▁Father	-10.7656
▁Napol	-10.7657
▁graceful	-10.7657
▁expand	-10.7658
▁Equ	-10.7658
pack	-10.766
▁absurdit	-10.7662
▁allegor	-10.7665
▁cellul	-10.7667
▁Chick	-10.7668
▁receive	-10.7668
▁statu	-10.7669
▁expressive	-10.7669
▁Grace	-10.7671
▁breathe	-10.7677
▁lavish	-10.7678
heard	-10.7679
▁misfire	-10.7681
▁mili	-10.7681
▁argue	-10.7683
▁terror	-10.7686
taneous	-10.7688
▁shak	-10.7689
▁wreck	-10.7691
conceive	-10.7693
▁Parad	-10.7693
▁assassin	-10.7694
▁Break	-10.7694
▁cruci	-10.7696
▁setup	-10.7696
vocative	-10.7698
sca	-10.77
▁Oz	-10.7714
▁expression	-10.7715
▁Mc	-10.7716
▁eager	-10.7718
▁Oh	-10.7722
▁introduce	-10.7724
▁thrown	-10.7727
nigma	-10.7733
▁hum	-10.7735
▁milk	-10.774
▁tug	-10.774
▁undermine	-10.7746
cating	-10.7754
anger	-10.7759
▁reel	-10.7761
▁Leave	-10.7763
▁teacher	-10.7764
▁chick	-10.7765
▁employ	-10.7766
concert	-10.7767
lm	-10.7767
▁local	-10.7781
▁sun	-10.7782
▁amid	-10.779
size	-10.7793
▁giggle	-10.7798
▁contemplati	-10.7801
ccasional	-10.7802
▁lull	-10.7803
▁firm	-10.7804
▁boil	-10.7805
▁mount	-10.7807
acious	-10.7811
▁recording	-10.7814
hill	-10.7818
oursel	-10.7819
▁patch	-10.7819
▁horse	-10.7825
▁prospect	-10.7829
etropoli	-10.7853
▁severe	-10.7856
ealing	-10.7861
▁flower	-10.7867
▁colli	-10.787
▁threaten	-10.789
▁agent	-10.7892
▁code	-10.7899
nia	-10.7901
ham	-10.7901
erous	-10.7906
withstand	-10.791
▁Wend	-10.793
▁gravit	-10.7942
▁insane	-10.7943
▁Gos	-10.7943
▁witt	-10.7943
▁Willi	-10.7947
▁glor	-10.7948
▁hok	-10.795
ovan	-10.7956
ides	-10.7957
▁va	-10.796
rigue	-10.7962
▁advance	-10.7962
▁Got	-10.7967
▁attraction	-10.7979
▁300	-10.7979
ale	-10.798
▁body	-10.7982
▁unfor	-10.7985
▁hasti	-10.7993
▁ready	-10.7994
rd	-10.7994
▁leap	-10.7995
▁Child	-10.7997
ga	-10.7997
▁law	-10.8001
undan	-10.8002
will	-10.8006
▁improbabl	-10.801
▁weave	-10.8011
▁buck	-10.8012
lous	-10.8014
▁fade	-10.8018
net	-10.8023
▁heft	-10.8033
dry	-10.8033
▁forth	-10.8047
▁90-	-10.8054
▁sensational	-10.8059
▁Skin	-10.8067
presentation	-10.8069
rrow	-10.8072
▁isolat	-10.8072
▁Sni	-10.8076
isguise	-10.8076
▁arm	-10.8094
ality	-10.8095
▁compos	-10.8095
▁Miss	-10.8096
▁Christ	-10.8105
▁cheek	-10.8108
▁combine	-10.8111
ach	-10.8113
ara	-10.813
donn	-10.8138
E	-10.8139
▁qualif	-10.8144
ungry	-10.8145
Neil	-10.8151
▁sard	-10.8163
▁track	-10.8163
▁Q	-10.8164
ber	-10.8172
▁slo	-10.8184
▁begu	-10.8195
ade	-10.8195
▁beside	-10.8196
risk	-10.8198
▁enhance	-10.8208
sided	-10.8208
▁bounc	-10.821
card	-10.8213
perfect	-10.8215
▁Brothers	-10.8219
▁pale	-10.8225
▁Bring	-10.8234
▁slack	-10.8235
▁prime	-10.8236
puted	-10.8247
▁plan	-10.8247
▁12	-10.825
▁Con	-10.8252
▁seven	-10.8253
▁probe	-10.8264
▁ideal	-10.8271
▁assembl	-10.8277
▁tub	-10.8278
cu	-10.8291
▁pant	-10.8294
uke	-10.831
through	-10.8311
▁biograph	-10.8312
▁survive	-10.8317
▁trade	-10.8318
ome	-10.8324
▁Fu	-10.8331
rose	-10.8331
ak	-10.8344
▁ambiguit	-10.8345
▁possess	-10.8347
crew	-10.835
▁tread	-10.8358
▁introduc	-10.8385
watch	-10.8386
aving	-10.8394
▁observe	-10.8396
▁screw	-10.8399
did	-10.8411
zo	-10.8418
▁Way	-10.8418
▁bull	-10.8422
oid	-10.8427
▁gre	-10.8442
▁Sand	-10.8446
▁expose	-10.845
fire	-10.845
▁Silen	-10.8451
nner	-10.8456
▁Coll	-10.8457
▁gain	-10.8459
hateau	-10.8475
▁float	-10.8495
hard	-10.8505
▁debate	-10.8509
inner	-10.851
eful	-10.8516
▁compare	-10.8521
direct	-10.8534
▁poke	-10.8537
llow	-10.8555
▁Art	-10.8558
▁veer	-10.8563
half	-10.8567
▁Tho	-10.857
▁chang	-10.8571
▁Dea	-10.8573
▁Dum	-10.8574
▁derive	-10.8583
moving	-10.8584
▁frat	-10.86
dlin	-10.8601
▁Walt	-10.8604
▁alien	-10.8613
ctic	-10.8619
dead	-10.8619
okes	-10.8623
ates	-10.8625
ning	-10.8625
heavy	-10.8626
blood	-10.8635
▁Ed	-10.8646
▁suitabl	-10.8647
W	-10.8658
▁spar	-10.866
aster	-10.8665
lter	-10.8669
odd	-10.8672
cast	-10.8672
numbing	-10.8679
▁Swe	-10.8691
▁voices	-10.8691
▁endure	-10.8691
▁dramatiz	-10.8696
▁cap	-10.8698
▁tart	-10.8702
utter	-10.8705
▁mor	-10.871
run	-10.8714
▁Free	-10.8715
▁j	-10.8719
tter	-10.8728
▁encourag	-10.8728
▁eccentricit	-10.873
▁Har	-10.8735
▁swim	-10.8738
ack	-10.8743
inoche	-10.8745
pstick	-10.8759
▁funni	-10.8766
▁uni	-10.8777
▁manag	-10.8778
arious	-10.8784
▁pla	-10.8789
lapse	-10.8797
water	-10.8801
▁program	-10.8808
▁Claus	-10.881
wash	-10.8821
▁tick	-10.8833
▁Myer	-10.8847
▁earl	-10.8852
igh	-10.8855
▁puzzle	-10.8869
▁Colla	-10.8877
▁lik	-10.8892
stop	-10.8896
▁pushe	-10.8897
▁opa	-10.8922
ode	-10.8922
▁pal	-10.8924
mp	-10.8933
ere	-10.8935
▁grade	-10.8938
▁Rat	-10.8941
▁Ven	-10.896
mercial	-10.8961
depre	-10.8971
pecial	-10.898
▁shoulder	-10.8985
Pro	-10.8986
▁ti	-10.8991
achine	-10.9
az	-10.9001
kept	-10.9002
▁observ	-10.9008
▁clothe	-10.9023
▁distincti	-10.903
▁Schm	-10.9036
▁Olive	-10.9039
▁informati	-10.9042
▁idio	-10.9043
rat	-10.9044
▁Bow	-10.9047
ification	-10.9049
roads	-10.9058
▁Sch	-10.9062
▁Brid	-10.9066
▁Pla	-10.9069
▁advi	-10.9078
ti	-10.9087
▁illuminat	-10.9089
shall	-10.9089
uck	-10.91
▁essen	-10.9102
tty	-10.9126
▁Pan	-10.9126
▁redundan	-10.9136
ummer	-10.9136
▁translat	-10.9148
ological	-10.9151
▁Cor	-10.9173
▁insan	-10.9173
▁emphasize	-10.9178
▁gener	-10.9184
▁confiden	-10.9185
▁laughabl	-10.9189
lls	-10.9189
inks	-10.9192
▁Qui	-10.9195
▁gel	-10.9197
▁Che	-10.9199
fac	-10.9207
▁Vis	-10.9208
▁insult	-10.9211
▁confront	-10.9218
rida	-10.9221
▁wrap	-10.9226
li	-10.9229
jam	-10.9231
▁techno	-10.9232
▁Hi	-10.9232
▁eeri	-10.9236
girls	-10.9247
▁Tra	-10.9248
si	-10.925
▁por	-10.9255
▁dish	-10.9256
▁Quit	-10.9257
▁fizz	-10.9259
▁boom	-10.9263
▁lit	-10.9265
▁discern	-10.9265
▁simul	-10.9267
think	-10.9268
▁evocati	-10.9275
▁contradict	-10.9276
teral	-10.9279
erry	-10.9285
▁Bruckheimer	-10.9286
▁Certain	-10.9286
▁Thornberry	-10.9286
▁explanation	-10.9286
▁incessant	-10.9286
▁undoubted	-10.9286
▁Merchant	-10.9286
▁monument	-10.9286
▁occur	-10.9286
▁proportion	-10.9286
▁punctuat	-10.9286
▁Abandon	-10.9286
▁Mexic	-10.9286
▁Soldier	-10.9286
▁appetite	-10.9286
▁obligat	-10.9286
▁skateboard	-10.9286
▁veteran	-10.9286
▁telegraph	-10.9286
▁abandon	-10.9286
▁Circu	-10.9286
▁flourish	-10.9286
▁MacDo	-10.9286
▁disarming	-10.9286
▁counterpart	-10.9286
▁solemn	-10.9286
▁snapshot	-10.9286
▁blatant	-10.9286
▁emphasis	-10.9287
▁Kahlo	-10.9287
▁reminiscen	-10.9287
▁reunion	-10.9287
▁reputation	-10.9287
▁Filmmaker	-10.9287
▁dishonest	-10.9287
▁aesthetic	-10.9287
▁demented	-10.9287
▁assault	-10.9287
▁fluid	-10.9287
▁baseball	-10.9287
▁flamboyan	-10.9287
▁exude	-10.9287
▁excruciating	-10.9287
▁Majid	-10.9287
▁alternative	-10.9287
▁lurid	-10.9287
▁sneak	-10.9287
▁Morris	-10.9287
▁deception	-10.9288
▁newcomer	-10.9288
▁heat	-10.9288
▁Music	-10.9288
▁Bettany	-10.9288
▁initial	-10.9288
▁silent	-10.9288
▁volume	-10.9288
▁blind	-10.9288
▁unbelievabl	-10.9288
▁concoction	-10.9289
▁furious	-10.9289
▁Formula	-10.9289
▁stroke	-10.9289
▁fundamental	-10.9289
▁peace	-10.9289
▁teeth	-10.9289
▁attach	-10.929
▁shrewd	-10.929
▁quarter	-10.929
▁betrayal	-10.929
▁Sign	-10.929
▁retro	-10.9291
▁Dark	-10.9292
▁divide	-10.9292
▁relax	-10.9292
▁flashback	-10.9293
▁repetition	-10.9293
▁Lifetime	-10.9293
▁attack	-10.9294
▁queen	-10.9294
▁chord	-10.9295
▁contest	-10.9295
ual	-10.9296
▁retain	-10.9297
▁command	-10.9298
▁infuse	-10.9298
▁label	-10.9298
▁admitted	-10.9299
▁conspirac	-10.9299
▁transparent	-10.9299
▁lark	-10.9299
▁yester	-10.93
ura	-10.93
▁clue	-10.9301
▁health	-10.9301
▁fearless	-10.9301
▁contrast	-10.9302
▁candid	-10.9303
nourish	-10.9303
▁tempting	-10.9304
▁alleged	-10.9304
barrel	-10.9305
▁infantil	-10.9307
▁baby	-10.9308
▁tissue	-10.9309
▁Open	-10.9309
▁farcical	-10.9314
▁dedicat	-10.9314
▁grain	-10.9316
▁damaged	-10.9317
▁hideous	-10.9319
▁sparkling	-10.932
▁cutesy	-10.932
▁gidd	-10.9323
▁Happ	-10.9323
▁speculati	-10.9324
▁inviting	-10.9326
▁Stein	-10.9326
▁sublime	-10.9327
▁Slack	-10.9327
versus	-10.9329
▁Old	-10.9331
▁loop	-10.9331
▁separate	-10.9332
▁drain	-10.9334
▁Lyn	-10.9334
▁demons	-10.9337
▁defi	-10.9339
digre	-10.9341
▁cameo	-10.9342
destructive	-10.9342
▁absurdi	-10.935
▁passage	-10.935
qui	-10.9352
▁dense	-10.9353
▁subm	-10.9356
▁conception	-10.9356
▁metaphorical	-10.9357
emic	-10.9359
▁loyal	-10.9362
▁zero	-10.9363
▁fabric	-10.9363
▁rous	-10.9363
▁racial	-10.9364
▁McDo	-10.9365
▁squeeze	-10.9366
▁obstacle	-10.9367
▁Se	-10.9367
▁venture	-10.9368
▁impulse	-10.9368
▁champion	-10.9369
▁State	-10.9369
▁dirty	-10.937
ware	-10.9372
▁bro	-10.9376
▁media	-10.9376
▁green	-10.9377
▁lust	-10.9378
▁terrorist	-10.9378
enchant	-10.9379
▁cohesi	-10.9381
▁definition	-10.9382
▁counter	-10.9385
ovi	-10.9385
▁therapy	-10.9386
▁feat	-10.9388
▁boundar	-10.9389
va	-10.939
▁Walk	-10.9391
▁info	-10.9396
▁economical	-10.9399
▁tricks	-10.94
▁happily	-10.94
era	-10.9407
▁enthusiastic	-10.9413
lair	-10.9416
▁peak	-10.9417
▁Ghe	-10.9418
▁k	-10.942
▁defeat	-10.9422
▁niche	-10.9425
▁flai	-10.9428
splitting	-10.9434
▁padd	-10.9443
▁genial	-10.9446
py	-10.945
downt	-10.9451
▁cheese	-10.9451
▁juic	-10.9453
▁peril	-10.9455
▁sucker	-10.9456
▁porn	-10.9463
▁invite	-10.9467
cer	-10.9469
▁claim	-10.9472
▁Stay	-10.9474
▁characteristic	-10.9475
▁Julia	-10.9478
pard	-10.948
▁needless	-10.9486
▁inert	-10.9487
▁tak	-10.9489
▁chief	-10.9489
▁poe	-10.9491
▁Beaut	-10.9494
▁praise	-10.9505
▁Made	-10.9506
▁lu	-10.9508
▁noise	-10.9512
▁bene	-10.9514
las	-10.9514
ppy	-10.9516
ummy	-10.9518
▁profile	-10.9521
▁demonstrat	-10.9523
▁pen	-10.9526
clear	-10.9528
▁field	-10.953
▁dozen	-10.9534
pete	-10.9534
▁Marri	-10.9534
ong	-10.9538
ony	-10.9539
▁antic	-10.9539
rvin	-10.9539
▁Sein	-10.9542
▁fe	-10.9544
▁thumb	-10.9549
▁screening	-10.955
veral	-10.9559
▁dust	-10.9562
▁speed	-10.9571
▁assum	-10.9572
▁fanc	-10.9573
▁cl	-10.9574
affected	-10.9576
▁painting	-10.9582
▁adventur	-10.9587
▁finger	-10.959
▁fuss	-10.9597
nch	-10.9603
▁Cur	-10.961
ember	-10.9612
▁protect	-10.9615
▁normal	-10.9617
pt	-10.9618
▁Ray	-10.9619
▁march	-10.9621
▁Seem	-10.9626
▁scal	-10.9628
▁Mean	-10.9631
▁package	-10.9634
▁Nation	-10.964
tor	-10.9656
▁Bri	-10.9657
tage	-10.9661
▁tit	-10.9662
▁Matte	-10.9662
satisfying	-10.9668
ai	-10.967
▁Kou	-10.9681
pool	-10.9685
▁nine	-10.9687
lan	-10.9688
zen	-10.9689
▁Salt	-10.9691
try	-10.9696
rude	-10.9699
ford	-10.9701
▁Dru	-10.9707
▁conjure	-10.9708
conceiv	-10.971
ph	-10.9711
▁Get	-10.9713
▁Daw	-10.9718
▁puzzl	-10.9728
chis	-10.9744
▁emerg	-10.9764
▁rain	-10.9771
ff	-10.9774
▁wet	-10.9783
▁Hick	-10.9785
ls	-10.9789
▁cock	-10.9791
▁fli	-10.9796
▁Cent	-10.9797
▁Mey	-10.9817
▁enchant	-10.9823
▁Vel	-10.9824
▁inform	-10.9834
▁mass	-10.9834
▁Was	-10.9836
▁Sus	-10.9837
onversation	-10.9848
▁feminis	-10.985
▁recover	-10.9861
burg	-10.9861
roject	-10.9865
wrench	-10.9876
▁bon	-10.9879
▁phenomen	-10.9879
▁alienat	-10.9892
▁grave	-10.9897
▁cann	-10.9899
fying	-10.9899
linsk	-10.9911
▁cont	-10.9912
▁trace	-10.993
▁stu	-10.9933
▁sapp	-10.9935
▁owe	-10.9936
glorifi	-10.9938
hekh	-10.9938
▁Pu	-10.996
▁eat	-10.9961
▁boat	-10.9967
amo	-10.997
▁Er	-10.9976
▁affirm	-10.9978
▁Gu	-10.998
▁journalis	-10.9981
▁fictional	-10.9988
▁Bob	-10.9989
▁rag	-10.9991
▁illustrate	-11.0003
focus	-11.0009
▁hel	-11.001
▁angle	-11.0011
▁rais	-11.0027
idan	-11.0029
pes	-11.0029
▁Michell	-11.0031
▁establish	-11.0033
▁Wonder	-11.0036
fact	-11.0042
▁u	-11.0048
focuse	-11.0058
mor	-11.006
tful	-11.0079
▁Asia	-11.0083
using	-11.0085
▁Simpl	-11.0093
▁addict	-11.0097
▁Ever	-11.0102
▁red	-11.0107
ature	-11.0107
▁Chang	-11.0112
ending	-11.0117
rent	-11.012
hrill	-11.0149
▁pander	-11.0151
▁Dr	-11.0153
mi	-11.0158
national	-11.0163
▁Rou	-11.0169
ree	-11.017
▁relate	-11.018
▁Ar	-11.018
▁worn	-11.0185
▁documentari	-11.019
ci	-11.0195
▁base	-11.0197
onduct	-11.0197
▁blown	-11.0198
cient	-11.0204
mid	-11.023
itous	-11.0231
earth	-11.0236
▁Edd	-11.024
▁revel	-11.0242
ung	-11.0246
▁consum	-11.0247
▁zon	-11.0252
ime	-11.0254
▁passabl	-11.0258
▁Care	-11.0262
beck	-11.0262
▁subtl	-11.027
▁symbol	-11.0273
wind	-11.0289
ived	-11.0289
ub	-11.029
▁amiabl	-11.029
▁teach	-11.029
vention	-11.0293
ka	-11.0295
ane	-11.03
yac	-11.0302
antic	-11.0306
▁Dan	-11.0306
wan	-11.0307
▁literat	-11.0307
▁archiv	-11.0308
▁dr	-11.0313
heart	-11.0317
later	-11.0318
▁und	-11.0334
▁hinge	-11.034
N	-11.0346
▁frag	-11.0347
dge	-11.0359
tick	-11.0378
▁memori	-11.0381
▁Ru	-11.0385
▁relevan	-11.0391
ngry	-11.0397
▁Ey	-11.0398
ssed	-11.0403
bb	-11.0418
escent	-11.0426
J	-11.0431
▁Gy	-11.0442
▁door	-11.0445
ug	-11.0451
human	-11.0454
mas	-11.0464
▁Su	-11.0466
dash	-11.047
your	-11.0473
lane	-11.0473
▁Bea	-11.0476
▁stupidit	-11.0477
ni	-11.0477
listic	-11.0477
▁facil	-11.0479
kind	-11.0496
▁ac	-11.0496
nger	-11.05
▁ta	-11.0502
▁ent	-11.0502
▁dimension	-11.0505
▁board	-11.0508
▁wins	-11.0508
F	-11.051
5	-11.0513
▁Happi	-11.0516
know	-11.0521
▁drum	-11.0525
02	-11.0526
▁boo	-11.0529
▁beach	-11.053
▁Po	-11.0535
▁Mak	-11.0536
▁indic	-11.0543
▁arc	-11.0555
▁liberat	-11.0562
▁Amar	-11.0574
modern	-11.0578
▁update	-11.0582
▁round	-11.0586
▁Kill	-11.0593
nvinci	-11.0593
▁brav	-11.0594
vers	-11.0599
▁practice	-11.0603
▁Ve	-11.0611
▁litera	-11.0613
ou	-11.0618
▁prat	-11.0619
▁Gener	-11.0621
adventure	-11.0624
▁establishe	-11.0626
serious	-11.0629
rry	-11.0633
winning	-11.0642
cheek	-11.0644
latter	-11.0647
white	-11.0651
▁Clu	-11.0653
omni	-11.0654
cultur	-11.0656
▁range	-11.0657
week	-11.0659
▁San	-11.0665
comprehensi	-11.0666
fiction	-11.0667
langu	-11.0669
sy	-11.0672
▁span	-11.0673
based	-11.0678
▁outer	-11.0682
Boy	-11.0685
offens	-11.0685
▁tackl	-11.0687
competent	-11.07
inspir	-11.0705
count	-11.071
▁soar	-11.071
aught	-11.071
▁responsib	-11.0715
max	-11.072
▁dol	-11.0722
▁cry	-11.0727
notch	-11.0727
▁implie	-11.0747
▁Ta	-11.0756
▁Scr	-11.0757
interesting	-11.076
▁pai	-11.0763
nding	-11.0767
▁heav	-11.0783
iche	-11.0786
▁pl	-11.0791
▁Pro	-11.0809
▁outing	-11.081
nette	-11.0812
▁Unf	-11.0812
▁mi	-11.0813
tive	-11.0815
▁Fla	-11.0821
og	-11.0823
Ever	-11.0824
▁appreciat	-11.0832
▁seam	-11.0847
▁episod	-11.0874
▁Wel	-11.0878
▁wis	-11.0881
▁tr	-11.0882
▁te	-11.0894
▁fro	-11.0899
▁del	-11.0928
▁rev	-11.0928
are	-11.0942
▁Bes	-11.0948
▁Undis	-11.0953
▁tool	-11.0957
aring	-11.0962
let	-11.0977
▁blo	-11.0992
rvey	-11.0998
turn	-11.1001
▁Put	-11.1001
ass	-11.1003
▁edg	-11.1021
▁van	-11.1022
▁Cos	-11.1028
surprising	-11.103
▁Emp	-11.1032
servati	-11.1037
▁Del	-11.1051
▁basi	-11.1052
▁jo	-11.1054
▁convention	-11.1057
▁Kil	-11.1058
▁locale	-11.1066
gen	-11.1074
▁audaci	-11.1089
pparent	-11.1091
discover	-11.1091
ampoon	-11.1096
ehind	-11.1096
▁possib	-11.1098
▁dominate	-11.1099
▁Offe	-11.1111
fare	-11.1112
▁progress	-11.1113
▁tri	-11.1114
sumpt	-11.1125
▁Auto	-11.1128
▁stream	-11.1131
▁Hen	-11.1135
▁occasion	-11.114
charge	-11.1142
▁lou	-11.1145
ked	-11.1147
▁193	-11.1154
▁geni	-11.1172
enter	-11.1174
▁impersona	-11.1184
▁fame	-11.1184
▁ad	-11.1188
▁groan	-11.1192
▁exhaust	-11.1201
arnest	-11.1202
▁disturb	-11.1205
▁ship	-11.121
ho	-11.1213
▁flesh	-11.1217
▁psycho	-11.122
arian	-11.1221
▁roller	-11.1225
▁collaborat	-11.1229
▁univers	-11.1233
▁terrif	-11.1238
▁preach	-11.1243
▁mar	-11.1244
▁innoc	-11.1245
dow	-11.1263
awd	-11.1269
▁Hitchcock	-11.1274
▁commun	-11.1278
dentity	-11.1278
bam	-11.1278
▁adapt	-11.128
▁tele	-11.1284
▁Cop	-11.1284
▁Vietnam	-11.1284
▁sham	-11.1285
▁rigor	-11.1285
▁intellect	-11.1286
▁overshadow	-11.1286
pyrotechnic	-11.1286
▁\*\*\*	-11.1286
▁amalgam	-11.1286
▁coincidence	-11.1286
▁curmudgeon	-11.1286
▁extravagant	-11.1286
▁grotesque	-11.1286
▁innuendo	-11.1286
▁irrelevan	-11.1286
▁misanthrop	-11.1286
▁perpetrat	-11.1286
▁resource	-11.1286
▁unblinking	-11.1286
▁unrelenting	-11.1286
▁Consider	-11.1286
▁Jaglom	-11.1286
▁MIB	-11.1286
▁applaud	-11.1286
▁homosexual	-11.1286
▁outlandish	-11.1286
▁profundit	-11.1286
▁tumult	-11.1286
▁Spanish	-11.1286
▁circumstan	-11.1286
▁neurotic	-11.1286
▁permeate	-11.1286
▁antidote	-11.1286
congratulat	-11.1286
▁wondrous	-11.1286
▁transition	-11.1286
▁panoram	-11.1286
▁schlock	-11.1286
▁surrender	-11.1286
▁footnote	-11.1286
▁pitiful	-11.1286
▁underdog	-11.1286
▁swagger	-11.1287
▁cell	-11.1287
▁ruthless	-11.1287
▁sprawl	-11.1287
▁Holofcen	-11.1287
destroy	-11.1287
▁obsessive	-11.1287
▁singular	-11.1287
▁cathar	-11.1287
▁collapse	-11.1287
drenched	-11.1287
▁subtext	-11.1287
▁rigid	-11.1287
▁subtitle	-11.1287
▁wistful	-11.1287
▁sickening	-11.1287
▁decision	-11.1287
▁description	-11.1287
▁sporadic	-11.1287
▁flavor	-11.1287
▁slipper	-11.1287
▁Jeff	-11.1288
▁1950	-11.1288
▁gloom	-11.1288
▁Vietnamese	-11.1288
▁Picture	-11.1288
▁spotlight	-11.1288
▁Farrell	-11.1288
▁disease	-11.1289
▁consol	-11.1289
▁Griffith	-11.1289
▁Brook	-11.1289
▁ignite	-11.1289
▁hedonist	-11.129
▁Photo	-11.1291
▁Cliff	-11.1291
▁breakdown	-11.1291
▁Audience	-11.1291
cycle	-11.1291
▁Deliver	-11.1291
▁thrust	-11.1291
▁dollar	-11.1291
▁morning	-11.1292
▁Cran	-11.1292
▁Broad	-11.1292
▁clown	-11.1293
▁explode	-11.1293
▁Six	-11.1293
vili	-11.1293
▁worship	-11.1294
▁triumphant	-11.1294
▁turkey	-11.1294
knack	-11.1294
▁cheerful	-11.1294
▁torment	-11.1294
▁accomplishment	-11.1294
oon	-11.1294
▁department	-11.1295
▁wedding	-11.1295
▁excessive	-11.1295
▁defiant	-11.1295
▁Eisen	-11.1296
▁scathing	-11.1296
▁acknowledg	-11.1297
▁glum	-11.1297
▁staggering	-11.1297
ilib	-11.1298
▁tailor	-11.1298
▁flip	-11.1298
▁hotel	-11.1298
▁smell	-11.1298
▁highlight	-11.1299
▁Direct	-11.1299
▁innovation	-11.13
▁penetrat	-11.13
▁patholog	-11.13
▁mindset	-11.1301
▁circle	-11.1302
▁recall	-11.1302
▁insistent	-11.1302
▁pluck	-11.1303
▁stoop	-11.1303
▁Argentine	-11.1303
▁ethic	-11.1304
▁Alien	-11.1304
▁celebrity	-11.1304
▁method	-11.1304
▁youngster	-11.1305
▁wander	-11.1306
▁atmospheric	-11.1307
▁architectur	-11.1308
▁afford	-11.131
▁tendenc	-11.131
opher	-11.1311
▁Croc	-11.1311
▁trope	-11.1311
▁nu	-11.1312
▁Begin	-11.1313
▁futil	-11.1313
▁impart	-11.1313
▁Pluto	-11.1313
sterous	-11.1313
▁Finch	-11.1314
▁improvise	-11.1314
▁Chai	-11.1315
▁Iran	-11.1316
▁unconventional	-11.1317
▁auster	-11.1319
▁dizzy	-11.1319
▁Imax	-11.1319
▁affectionate	-11.132
▁excel	-11.132
▁vu	-11.132
▁smash	-11.1321
ez	-11.1322
▁figur	-11.1323
▁savage	-11.1325
▁Col	-11.1325
▁flame	-11.1327
▁Deep	-11.1328
▁thirst	-11.1328
▁jell	-11.1329
▁Damon	-11.133
▁pause	-11.1331
▁beloved	-11.1334
▁temper	-11.1334
mline	-11.1334
▁Scot	-11.1336
▁trial	-11.1336
▁naught	-11.1337
▁fond	-11.1338
rung	-11.1339
▁Catch	-11.134
▁da	-11.134
fist	-11.1341
▁Nine	-11.1344
▁letter	-11.1346
erior	-11.1347
▁Maggi	-11.1352
▁companion	-11.1353
▁pill	-11.1353
▁Shin	-11.1354
call	-11.1355
▁animat	-11.1356
▁Throw	-11.1356
▁Antoni	-11.1358
▁press	-11.1358
▁Scher	-11.1359
▁response	-11.1361
▁circu	-11.1361
nimal	-11.1363
▁vain	-11.1363
▁spread	-11.1363
▁clinical	-11.1364
wield	-11.1365
uspicious	-11.1365
logue	-11.1365
uiz	-11.1367
▁verge	-11.1371
▁thread	-11.1373
▁ensu	-11.1374
▁geek	-11.1375
▁bagg	-11.1375
▁Rule	-11.1376
▁Aute	-11.1377
▁vulnerab	-11.1378
▁parallel	-11.1378
▁chops	-11.138
▁delusion	-11.1383
▁Canadian	-11.1384
▁rebellio	-11.1384
▁bike	-11.1387
gan	-11.1389
rah	-11.139
▁solution	-11.1392
▁stee	-11.1393
▁Jose	-11.1395
▁glee	-11.1396
▁compulsive	-11.1396
xploitati	-11.1399
▁Russ	-11.1407
▁sc	-11.1408
ative	-11.1414
▁executive	-11.1417
ches	-11.1422
▁glamo	-11.1423
▁Com	-11.1423
▁bubble	-11.1423
gratu	-11.1425
▁crackle	-11.1425
rystal	-11.1425
▁commend	-11.1428
▁adrenalin	-11.1435
▁flatter	-11.1439
▁Viv	-11.1441
▁50-	-11.1442
lkin	-11.1443
oignan	-11.1444
▁naked	-11.1447
po	-11.1449
▁journalist	-11.145
ooge	-11.1451
▁Muc	-11.1452
invigorat	-11.1454
piece	-11.1459
▁Vivi	-11.1463
▁merge	-11.1464
ination	-11.1469
▁savor	-11.1471
ang	-11.1474
▁brave	-11.1476
▁convert	-11.1476
mitted	-11.148
▁eight	-11.1483
ank	-11.1491
▁uncomm	-11.1496
▁mala	-11.1497
▁keen	-11.1498
▁Israeli	-11.1498
▁sufficient	-11.15
▁singer	-11.1506
▁strip	-11.1508
enden	-11.151
▁memo	-11.152
▁join	-11.1524
thought	-11.1538
▁naturalis	-11.1539
▁Lad	-11.156
▁glob	-11.156
▁Game	-11.1567
▁amaze	-11.1568
▁happi	-11.1574
▁Final	-11.1575
▁import	-11.1575
▁exten	-11.1579
▁Desp	-11.1579
▁shin	-11.1581
▁textur	-11.1583
lunch	-11.1585
▁resent	-11.1586
▁knee	-11.1587
nna	-11.159
▁slee	-11.1593
▁loath	-11.1594
wer	-11.1596
▁somebod	-11.1598
valu	-11.1602
▁walking	-11.1604
▁Hear	-11.1609
▁insider	-11.1609
▁existen	-11.1609
▁fille	-11.1614
ollywood	-11.1621
▁analy	-11.1623
▁45	-11.1624
vill	-11.1628
▁fuel	-11.1628
▁machi	-11.1635
cab	-11.1642
ron	-11.1644
▁Alf	-11.1645
▁crush	-11.1649
▁storyteller	-11.1652
rts	-11.1661
▁Iris	-11.1662
ontaine	-11.1666
▁muse	-11.1668
▁Alt	-11.1671
50	-11.1671
▁Catholic	-11.1672
▁switch	-11.1675
ogged	-11.1676
▁assume	-11.1677
▁investigat	-11.1682
▁rings	-11.1684
ierce	-11.169
▁greed	-11.1692
q	-11.1695
▁Feature	-11.1695
▁stalk	-11.17
▁drawing	-11.1703
▁Juliet	-11.1705
▁plane	-11.1705
▁idiotic	-11.1708
▁Weave	-11.1708
liff	-11.1711
▁Ark	-11.1723
▁50	-11.1725
▁theori	-11.1733
▁sil	-11.1735
▁Pry	-11.1741
ute	-11.1746
▁trap	-11.1746
▁tatter	-11.1753
▁Rif	-11.1754
▁pala	-11.1754
ants	-11.1756
▁ar	-11.1763
▁stab	-11.1773
▁General	-11.1773
dup	-11.1775
▁Mag	-11.1781
▁stake	-11.1782
mond	-11.1785
▁Fredd	-11.1789
▁Ali	-11.18
▁Var	-11.1802
▁camouflage	-11.1805
ados	-11.1814
▁doc	-11.1817
▁humaniz	-11.1819
angle	-11.1828
▁imag	-11.1832
▁insi	-11.1835
ral	-11.1843
▁Bl	-11.1846
alogue	-11.1866
▁Dig	-11.1869
▁distan	-11.1875
character	-11.1881
ession	-11.1891
aza	-11.1894
▁Yorker	-11.1903
ium	-11.1911
▁melt	-11.1913
▁aristocrat	-11.1915
▁wrench	-11.1921
versi	-11.1923
pkin	-11.1925
▁repres	-11.1929
eck	-11.1931
▁envelop	-11.1941
ars	-11.1949
▁minds	-11.195
▁rug	-11.1951
▁intentional	-11.196
eye	-11.1961
unning	-11.1962
tball	-11.1963
quis	-11.1967
▁Jew	-11.1967
onfession	-11.1977
▁bask	-11.1977
▁5	-11.1981
lusive	-11.1982
▁Liza	-11.1986
rupt	-11.1988
▁Derr	-11.1993
▁rework	-11.1993
▁flail	-11.1999
▁warmed	-11.2003
amura	-11.2009
lady	-11.2015
raise	-11.202
shing	-11.2026
trap	-11.2027
▁tax	-11.2039
▁struggl	-11.2041
▁cram	-11.2045
eptic	-11.2048
▁scarie	-11.2051
▁reli	-11.2053
▁misogyn	-11.2065
▁destructi	-11.2069
wit	-11.2072
▁dear	-11.2078
▁Bean	-11.2094
▁encourage	-11.2097
▁tackle	-11.2098
enuous	-11.2105
press	-11.2115
▁walle	-11.2118
▁num	-11.2119
▁coff	-11.2121
orrow	-11.2125
▁fines	-11.2131
▁hind	-11.214
▁op	-11.2143
▁cr	-11.2145
▁Que	-11.2153
izzle	-11.2162
▁cat	-11.2162
▁mak	-11.2163
▁Sal	-11.2169
▁bra	-11.2183
ifying	-11.2186
▁lap	-11.2186
▁Mu	-11.219
cher	-11.2193
ilit	-11.2196
▁shout	-11.2207
crushing	-11.2213
▁insu	-11.223
▁sav	-11.2231
▁Sn	-11.2231
▁View	-11.2241
▁mode	-11.2242
▁fest	-11.2254
stud	-11.2256
▁Ship	-11.2263
edge	-11.2277
witch	-11.228
▁dragg	-11.2285
esident	-11.2286
▁trot	-11.2288
poon	-11.2306
▁suburb	-11.2308
▁vi	-11.231
▁af	-11.2311
pper	-11.2322
▁ice	-11.2324
▁spaces	-11.2326
luct	-11.2332
▁fragment	-11.2335
▁upper	-11.2337
▁Up	-11.2337
▁Bowl	-11.2351
oria	-11.2353
▁scr	-11.2364
ocus	-11.237
pace	-11.2376
▁jerk	-11.2385
per	-11.2388
hi	-11.2401
ular	-11.2408
▁controll	-11.2411
satisfie	-11.2412
ennes	-11.2413
od	-11.2418
▁piqu	-11.2422
▁Ton	-11.2424
2-	-11.2426
▁Mac	-11.2427
▁Carl	-11.2429
▁loser	-11.243
▁dre	-11.2432
ttel	-11.2433
quet	-11.2437
urse	-11.2447
▁Their	-11.2455
lling	-11.2461
lection	-11.2462
▁ski	-11.2466
aughter	-11.2471
▁otherw	-11.248
▁tw	-11.2481
maker	-11.2486
▁Anima	-11.2487
▁guts	-11.2489
▁Come	-11.2489
lab	-11.2501
▁passe	-11.251
▁collect	-11.2516
ds	-11.2518
▁Dir	-11.2522
romise	-11.2523
nder	-11.2532
▁tra	-11.2536
inister	-11.2536
ronic	-11.2537
▁updat	-11.2541
▁Sonn	-11.2542
▁homes	-11.2552
▁darn	-11.2559
▁ambigu	-11.257
rising	-11.2578
▁Poss	-11.2586
cur	-11.259
▁pur	-11.2593
argarita	-11.2603
opin	-11.2605
▁sand	-11.2609
ep	-11.2613
▁racis	-11.2625
▁Tri	-11.2631
world	-11.2634
▁Cut	-11.2634
▁shower	-11.2642
cat	-11.2666
▁reveren	-11.2666
▁Der	-11.2676
cap	-11.2678
▁size	-11.2683
▁evolve	-11.2684
▁supp	-11.2685
▁plu	-11.2692
produce	-11.2718
xt	-11.2736
▁gra	-11.2746
friend	-11.2746
▁requir	-11.2753
▁leak	-11.2759
rman	-11.2767
▁ph	-11.277
40	-11.2777
▁wha	-11.2779
▁Cle	-11.2796
ina	-11.2797
addle	-11.2811
bare	-11.2812
there	-11.2814
▁Sil	-11.2814
▁attracti	-11.2816
▁Op	-11.2832
producer	-11.2844
tious	-11.2848
▁ravi	-11.2864
mple	-11.2867
▁shap	-11.2878
unit	-11.2883
Claud	-11.2886
▁releas	-11.289
▁Elli	-11.2897
▁Ana	-11.2909
▁zip	-11.2925
bing	-11.2933
▁profan	-11.2938
▁exposit	-11.2942
▁vig	-11.2948
▁disintegrat	-11.2948
▁Bors	-11.2952
ween	-11.2953
ker	-11.2953
loved	-11.2956
ix	-11.2956
ored	-11.2958
iac	-11.2964
lph	-11.2965
▁pin	-11.2968
neuve	-11.2968
rol	-11.2975
▁observa	-11.2977
▁expos	-11.298
▁Ea	-11.2989
bed	-11.2999
▁cre	-11.3003
▁Das	-11.3005
▁credi	-11.3011
con	-11.3012
itude	-11.3018
horror	-11.302
▁fright	-11.3029
▁Ger	-11.3035
air	-11.3039
▁trave	-11.3041
▁Tar	-11.3042
▁assemble	-11.3043
11	-11.3044
wall	-11.3053
▁prob	-11.3063
▁creepi	-11.3068
culture	-11.3069
puff	-11.3073
▁slaps	-11.3085
▁Qua	-11.3093
▁Serr	-11.3096
▁sensitivit	-11.3099
▁dim	-11.3099
game	-11.3105
grave	-11.3114
▁unc	-11.3115
pretentious	-11.3123
▁bl	-11.3125
▁Tun	-11.3125
▁operat	-11.3135
▁fart	-11.3138
important	-11.314
fide	-11.3145
prop	-11.3148
▁brush	-11.3163
regard	-11.3164
construct	-11.3165
tary	-11.3168
▁exc	-11.3169
ground	-11.3169
remarkabl	-11.317
ado	-11.3173
meets	-11.3183
▁Gr	-11.3185
trash	-11.3186
lot	-11.3186
▁acid	-11.3191
daughter	-11.3194
ops	-11.3195
dly	-11.3197
▁Bre	-11.3198
urprising	-11.3204
ean	-11.3205
throat	-11.3208
mouth	-11.321
▁trans	-11.321
▁mire	-11.3212
walk	-11.3212
pleasing	-11.3224
you	-11.3228
color	-11.3244
step	-11.3252
log	-11.3262
pop	-11.3263
market	-11.3269
lots	-11.327
memor	-11.3278
▁indicate	-11.3281
▁Nort	-11.3282
assum	-11.3291
nic	-11.3293
second	-11.3296
▁spa	-11.3301
astro	-11.3309
▁meet	-11.3311
▁origin	-11.3317
▁am	-11.3325
involving	-11.3328
tail	-11.3332
truck	-11.3336
als	-11.3346
here	-11.335
pro	-11.3354
▁gar	-11.3356
retty	-11.3379
▁urgen	-11.3384
▁fascinate	-11.3387
▁Dis	-11.3401
belly	-11.3402
ken	-11.3404
vall	-11.3412
▁civil	-11.3421
▁fanatic	-11.3422
▁bri	-11.3428
▁distinguishe	-11.3431
tute	-11.3436
front	-11.345
▁Ki	-11.3458
▁def	-11.346
sleep	-11.3462
cool	-11.3466
▁Spi	-11.3471
tz	-11.3474
lock	-11.3474
▁compar	-11.3479
centur	-11.3494
▁sole	-11.3502
pairing	-11.3503
olid	-11.3504
▁idealis	-11.3521
▁news	-11.3522
▁fil	-11.3522
▁characteriz	-11.3524
llows	-11.3532
▁entr	-11.3533
▁Schni	-11.3542
consider	-11.3545
load	-11.3546
▁boost	-11.3564
▁importan	-11.3571
udl	-11.3572
▁offens	-11.3573
dget	-11.3574
▁bas	-11.3576
daptation	-11.3581
dium	-11.3582
▁moviemak	-11.359
develop	-11.3597
▁enthusiast	-11.36
▁erra	-11.3607
ving	-11.361
▁sl	-11.3627
▁confine	-11.3634
▁Pres	-11.3636
▁manic	-11.3643
bake	-11.3643
▁sin	-11.3653
▁Atta	-11.3659
▁futur	-11.3661
▁Tim	-11.3662
▁flee	-11.3668
▁significan	-11.3674
ope	-11.3678
▁Nor	-11.3687
▁rar	-11.3692
▁replace	-11.3696
ee	-11.3698
▁stylist	-11.3699
▁18	-11.371
otte	-11.3715
com	-11.3717
▁Brav	-11.3723
▁refresh	-11.3724
▁cons	-11.3725
▁economic	-11.3728
▁ya	-11.3728
odge	-11.3732
▁mob	-11.3735
▁via	-11.3741
kes	-11.3741
▁meander	-11.3744
▁damage	-11.3746
itch	-11.375
▁Korea	-11.3753
owling	-11.3759
llo	-11.377
▁sanctimon	-11.377
luggish	-11.3778
▁testimon	-11.3785
▁voyeur	-11.3786
▁Kafka	-11.3786
▁Predictabl	-11.3786
▁Zealand	-11.3786
▁campaign	-11.3786
▁caricature	-11.3786
▁estrogen	-11.3786
▁hundred	-11.3786
▁immaculate	-11.3786
▁inadvertent	-11.3786
▁manifesto	-11.3786
▁miraculous	-11.3786
▁perpetual	-11.3786
▁principal	-11.3786
▁pronounce	-11.3786
▁raucous	-11.3786
▁symmetr	-11.3786
▁unapologetic	-11.3786
▁underestimate	-11.3786
▁unmistakabl	-11.3786
▁valiant	-11.3786
▁institution	-11.3786
▁syrup	-11.3786
▁zombie	-11.3786
▁column	-11.3786
▁conquer	-11.3786
▁dutiful	-11.3786
▁impatient	-11.3786
▁junior	-11.3786
▁sabotage	-11.3786
▁sweat	-11.3786
▁Twenty	-11.3786
▁Vampire	-11.3786
▁psychopath	-11.3786
▁Expect	-11.3786
▁segment	-11.3786
▁monstrous	-11.3786
▁Hilarious	-11.3786
▁implication	-11.3786
▁prevail	-11.3786
▁Gantz	-11.3786
▁opposite	-11.3786
▁scandal	-11.3786
▁signpost	-11.3786
▁Street	-11.3786
▁accumulate	-11.3786
▁Olivier	-11.3787
▁adopt	-11.3787
▁Jacob	-11.3787
▁coarse	-11.3787
▁Channel	-11.3787
▁capitalize	-11.3787
huang	-11.3787
▁swipe	-11.3787
▁elbow	-11.3787
▁masochis	-11.3787
▁travail	-11.3787
▁eviden	-11.3787
▁condens	-11.3787
▁responsibilit	-11.3787
▁bargain	-11.3787
▁register	-11.3787
▁lecture	-11.3787
▁brawn	-11.3787
▁buzz	-11.3787
▁abrupt	-11.3787
▁fabulous	-11.3787
▁wretched	-11.3787
▁Large	-11.3787
▁acquire	-11.3787
▁retool	-11.3787
▁85	-11.3787
uil	-11.3787
▁Barbar	-11.3787
▁mournful	-11.3787
esteem	-11.3787
▁vicious	-11.3787
▁drunk	-11.3787
droit	-11.3788
▁plausib	-11.3788
▁zeal	-11.3788
▁inquisitive	-11.3788
▁Abbas	-11.3788
▁puppet	-11.3788
▁rumination	-11.3788
▁dilute	-11.3788
▁repulsive	-11.3788
▁favour	-11.3788
▁church	-11.3788
▁groove	-11.3789
▁Alexand	-11.3789
▁vacu	-11.3789
▁detract	-11.3789
▁accompany	-11.3789
▁Jeong	-11.3789
▁glitz	-11.3789
▁ardent	-11.3789
▁Simpson	-11.3789
▁Field	-11.3789
▁temptation	-11.3789
▁chomp	-11.3789
▁sauc	-11.379
▁disorient	-11.379
▁hallmark	-11.379
▁spider	-11.379
busting	-11.379
▁elicit	-11.379
▁flounder	-11.379
▁gamble	-11.3791
▁Belgi	-11.3791
▁stultifying	-11.3791
▁stripped	-11.3792
witz	-11.3792
▁frenz	-11.3792
▁undertone	-11.3792
▁outshine	-11.3792
▁research	-11.3793
▁sword	-11.3793
▁terminal	-11.3793
▁error	-11.3793
▁Know	-11.3793
▁immatur	-11.3793
▁insufferabl	-11.3794
▁Sensitive	-11.3794
▁participant	-11.3794
▁prep	-11.3794
▁Armenian	-11.3795
▁riot	-11.3795
▁clueless	-11.3795
dominant	-11.3795
▁twenty	-11.3796
▁Boast	-11.3796
▁streak	-11.3796
▁Spring	-11.3796
▁Week	-11.3797
▁pose	-11.3797
▁stifling	-11.3797
▁88	-11.3797
▁slide	-11.3797
▁descend	-11.3797
▁Patch	-11.3798
▁Greg	-11.3799
▁modernize	-11.3799
▁rerun	-11.3799
▁infinite	-11.3799
▁block	-11.3799
▁Lynch	-11.38
▁shimmering	-11.38
▁disquieting	-11.3801
▁bewildering	-11.3801
▁exasperating	-11.3801
Hitchcockian	-11.3802
▁plumb	-11.3802
▁contradiction	-11.3802
zill	-11.3803
▁sanctimonious	-11.3803
▁twinkl	-11.3803
▁traffic	-11.3803
▁sleek	-11.3803
radical	-11.3804
▁Slap	-11.3804
▁discord	-11.3805
▁doze	-11.3806
iso	-11.3806
▁weightless	-11.3807
▁falter	-11.3809
▁thirty	-11.3811
▁McCo	-11.3812
▁agit	-11.3812
wicz	-11.3812
vious	-11.3813
▁\*	-11.3813
▁shred	-11.3814
▁gr	-11.3819
▁overlook	-11.3819
▁accident	-11.382
▁illogic	-11.382
▁grandios	-11.382
umb	-11.382
▁spunk	-11.3821
▁schem	-11.3821
nny	-11.3821
▁Place	-11.3822
▁uncover	-11.3823
▁whirl	-11.3823
▁inexperience	-11.3823
▁lip	-11.3823
▁vibe	-11.3825
▁laid	-11.3826
upreme	-11.3826
▁lovable	-11.3827
▁compen	-11.3828
▁Touche	-11.3828
acked	-11.383
loqu	-11.3831
▁Short	-11.3834
▁Credi	-11.3834
▁Reese	-11.3835
mash	-11.3836
▁Slow	-11.3837
baf	-11.3837
▁embrac	-11.3838
▁abundant	-11.3839
▁fizzle	-11.3839
eander	-11.384
▁persua	-11.3842
▁efficient	-11.3842
▁tourist	-11.3843
▁chimp	-11.3843
▁Hanu	-11.3844
thos	-11.3844
▁corrupt	-11.3845
conceptual	-11.3845
▁Stall	-11.3846
▁confusion	-11.3847
nterview	-11.3849
two	-11.3849
▁trimming	-11.3849
▁Lio	-11.385
▁glow	-11.3852
▁moldy	-11.3853
▁guest	-11.3853
▁threat	-11.3853
▁instance	-11.3853
plin	-11.3853
remors	-11.3853
▁flatten	-11.3854
▁dwell	-11.3858
igan	-11.3859
▁Eri	-11.3861
ntriguing	-11.3862
wr	-11.3864
▁Horn	-11.3864
▁Killer	-11.3865
▁assign	-11.3865
▁Jia	-11.3865
▁lurk	-11.3871
▁majority	-11.3872
▁liberti	-11.3872
▁mask	-11.3874
▁exuberant	-11.3874
▁plac	-11.3879
▁clone	-11.3879
▁dogged	-11.388
▁mock	-11.3881
▁saddle	-11.3882
▁Paris	-11.3882
▁religion	-11.3883
wolf	-11.3886
bit	-11.3891
ational	-11.3892
only	-11.3893
▁pink	-11.3894
▁riddle	-11.3895
▁Pipe	-11.3899
wai	-11.3899
medical	-11.3899
▁click	-11.3899
▁conscious	-11.39
lam	-11.3902
▁wallow	-11.3903
▁advertise	-11.3903
▁Easi	-11.3905
▁statement	-11.3905
▁hidden	-11.3906
▁illusion	-11.3907
jes	-11.3907
▁creator	-11.3908
▁agenda	-11.3909
▁WWII	-11.3909
▁anticipat	-11.3909
fig	-11.3911
▁incarnation	-11.3911
▁Palestinian	-11.3912
▁guard	-11.3912
▁knot	-11.3913
▁tangle	-11.3913
▁urgent	-11.3916
▁glu	-11.3917
▁Sept	-11.3919
▁Fast	-11.3919
metic	-11.3922
▁riff	-11.3922
▁Louis	-11.3923
▁Wer	-11.3924
produc	-11.3924
▁son	-11.3924
▁courageous	-11.3925
▁dro	-11.3927
▁merc	-11.3927
▁scam	-11.3928
▁bug	-11.393
▁hammer	-11.393
▁unlik	-11.3933
hta	-11.3935
▁guide	-11.3935
▁compli	-11.3935
▁awaken	-11.3944
▁Ear	-11.3944
▁highway	-11.3947
▁shatter	-11.3949
ink	-11.395
▁pony	-11.3953
▁dialog	-11.3955
▁dime	-11.3959
▁Rand	-11.396
▁outrage	-11.396
▁ensure	-11.396
▁pompo	-11.3966
▁enem	-11.3971
▁muck	-11.3977
▁aspire	-11.3979
▁poster	-11.3979
▁Flat	-11.398
olia	-11.3981
wis	-11.3987
dalo	-11.399
▁Ab	-11.399
ghan	-11.3993
▁stir	-11.3994
▁model	-11.3996
▁recognizabl	-11.3998
mbs	-11.4004
▁mull	-11.4017
mong	-11.4021
hould	-11.4021
quaint	-11.403
ooky	-11.4041
▁styli	-11.4042
▁Bal	-11.4042
cop	-11.4043
cting	-11.4044
hai	-11.4046
▁nutt	-11.4047
▁reek	-11.4048
▁sacrific	-11.405
▁hypocris	-11.4051
▁Ol	-11.4051
▁Engl	-11.4051
▁bel	-11.4052
gid	-11.4054
avail	-11.4055
▁veil	-11.4064
▁wan	-11.4066
jing	-11.4072
▁Los	-11.4072
▁slash	-11.4074
▁pranks	-11.4075
▁Hal	-11.408
etc	-11.4082
▁spike	-11.4083
▁critiqu	-11.409
▁birth	-11.409
▁hu	-11.4094
phile	-11.4103
▁rolli	-11.4105
▁makeup	-11.4107
▁Pleas	-11.411
arm	-11.4115
▁attend	-11.4118
▁Gon	-11.4119
lude	-11.4125
▁12-	-11.4128
▁Kno	-11.413
▁Case	-11.4131
▁automatic	-11.4138
▁asset	-11.4142
▁Spade	-11.4147
mit	-11.4152
▁Easter	-11.4157
▁dread	-11.4159
▁Shag	-11.4161
▁seas	-11.4161
▁rea	-11.4164
ba	-11.4167
▁hamm	-11.4169
▁tack	-11.4175
▁mish	-11.4185
▁skim	-11.4186
▁Bei	-11.4186
Ni	-11.4186
▁Beat	-11.4188
ndler	-11.4192
▁lighter	-11.4194
lib	-11.4196
▁omni	-11.4201
▁15-	-11.4204
▁gau	-11.421
responsib	-11.4214
llar	-11.4214
▁Mild	-11.4221
▁cipher	-11.4223
▁Jar	-11.4225
▁kne	-11.4234
▁blun	-11.4239
eigh	-11.424
▁overstat	-11.4241
▁evening	-11.4243
▁Lev	-11.4249
▁Shir	-11.4251
▁Chill	-11.4264
▁charit	-11.4264
▁nift	-11.4264
▁embarrassing	-11.4267
▁sticky	-11.4267
▁Adri	-11.4274
▁Gay	-11.4278
edium	-11.4278
▁pri	-11.4278
▁Stand	-11.4285
lick	-11.4286
▁loosely	-11.4289
▁psyche	-11.4294
▁biz	-11.4295
▁vene	-11.4296
ction	-11.4303
fell	-11.4307
▁print	-11.4311
80	-11.4313
ob	-11.4324
fly	-11.4326
enni	-11.4329
▁ri	-11.4338
▁Rocky	-11.4341
▁95	-11.4354
cumbers	-11.4359
▁clock	-11.4359
▁inquir	-11.436
Blanc	-11.4361
▁radia	-11.4364
-13	-11.4365
▁divin	-11.4377
tch	-11.4383
tta	-11.4386
▁fat	-11.4386
eeds	-11.4393
omedian	-11.4393
▁deserv	-11.4401
▁Columbi	-11.4406
▁gap	-11.4411
ils	-11.4414
▁electr	-11.4418
▁Pho	-11.443
▁Isl	-11.4444
sty	-11.4454
rek	-11.4461
▁choke	-11.4463
▁sting	-11.4476
▁Spre	-11.4482
ida	-11.4487
▁Ell	-11.4491
apping	-11.4493
sex	-11.4493
ghett	-11.4496
▁daughter	-11.4496
▁narcissis	-11.4497
col	-11.4501
▁overb	-11.4515
▁recreate	-11.452
▁hallucinat	-11.4521
▁repell	-11.4525
▁anarch	-11.4533
rase	-11.4535
can	-11.454
umor	-11.454
▁im	-11.4543
ude	-11.4544
▁striv	-11.4549
▁stead	-11.4552
▁Cris	-11.4556
ured	-11.456
oper	-11.4561
▁Cont	-11.4563
herish	-11.4566
generat	-11.4567
▁dip	-11.4573
opera	-11.4573
▁na	-11.4575
awk	-11.4575
raft	-11.4578
▁competiti	-11.4578
▁Passion	-11.4583
▁Think	-11.4584
▁tooth	-11.4586
▁comed	-11.4588
▁puff	-11.459
east	-11.4591
▁Alle	-11.4592
▁deteriorat	-11.4596
▁refer	-11.4601
▁elegan	-11.4605
▁concentrate	-11.4605
iting	-11.4606
pilo	-11.4618
▁Gall	-11.4621
▁blues	-11.4627
urger	-11.4628
▁Cap	-11.463
▁Need	-11.4644
parate	-11.4648
▁forc	-11.4664
▁generat	-11.4669
torytell	-11.4679
ening	-11.4695
▁Mot	-11.4702
pleas	-11.4704
lt	-11.4709
▁Except	-11.4711
▁div	-11.4714
▁prepare	-11.4719
▁seduce	-11.4738
ulent	-11.4743
▁sent	-11.4748
▁precis	-11.4751
erball	-11.4757
▁Dumb	-11.476
▁Magn	-11.4761
▁Mart	-11.4763
▁Smok	-11.4766
fman	-11.4767
den	-11.4769
▁cri	-11.4771
▁sw	-11.4793
iro	-11.4793
▁Goth	-11.4795
▁blurr	-11.48
wart	-11.4804
drive	-11.4806
▁ai	-11.482
sing	-11.4823
▁Us	-11.483
casia	-11.4835
▁helm	-11.484
▁Yo	-11.4843
ges	-11.4854
urban	-11.4855
▁visi	-11.4857
▁fetish	-11.4859
▁pos	-11.4867
▁Ron	-11.4867
ambo	-11.4879
▁button	-11.4881
reck	-11.4884
easing	-11.4887
▁August	-11.4908
▁Cher	-11.4909
clips	-11.4916
▁anom	-11.4921
▁dai	-11.4931
▁promote	-11.4938
▁bound	-11.4944
▁Las	-11.4947
▁Bra	-11.4957
rimming	-11.4969
iffle	-11.498
eller	-11.4982
tune	-11.4992
▁Poet	-11.5
▁10-	-11.5004
▁emergenc	-11.5006
▁Ski	-11.5014
orgeous	-11.5026
▁Rug	-11.5026
ching	-11.5028
▁compromise	-11.5029
lute	-11.5043
▁sing	-11.505
▁bogg	-11.5064
▁relevanc	-11.5065
▁intellig	-11.5074
▁Goy	-11.5085
▁opt	-11.5086
▁tea	-11.5088
▁row	-11.509
▁wri	-11.5092
ripp	-11.5094
▁Laur	-11.5098
▁Pap	-11.5098
tholog	-11.5098
▁focuse	-11.5099
wn	-11.5102
iety	-11.5103
▁dista	-11.5104
▁bust	-11.5109
rther	-11.5119
sting	-11.5129
iller	-11.5131
▁lic	-11.5136
etting	-11.5136
▁notch	-11.5149
▁virtu	-11.5151
ear	-11.5153
ency	-11.5154
ration	-11.5158
▁poo	-11.5177
▁hoo	-11.5181
▁recit	-11.5182
▁Barr	-11.5183
▁mystic	-11.5183
▁Bie	-11.5188
iguchi	-11.5198
ivan	-11.5204
tment	-11.5212
▁Ry	-11.5213
▁Test	-11.5216
▁appreciati	-11.5231
lone	-11.5239
allow	-11.524
▁priv	-11.5242
▁butter	-11.5245
▁Ig	-11.5246
▁helping	-11.5252
▁noticeabl	-11.5256
▁Contr	-11.5257
▁spit	-11.5258
▁Doo	-11.5264
▁associate	-11.5271
▁pris	-11.5276
▁spo	-11.5286
▁Shre	-11.5314
▁beca	-11.5318
rty	-11.5321
actor	-11.5332
▁mold	-11.5333
▁marr	-11.5334
▁lac	-11.5337
▁handl	-11.5344
fty	-11.5346
▁Bas	-11.5355
rader	-11.5355
generate	-11.5363
gard	-11.5364
▁virtuos	-11.5371
timid	-11.5373
pical	-11.5373
ospital	-11.5376
▁playwri	-11.538
▁poise	-11.5383
▁har	-11.5386
ess	-11.5388
▁innovati	-11.539
tar	-11.5395
vid	-11.5405
▁reliabl	-11.5408
▁reci	-11.541
heroic	-11.541
▁Pr	-11.5413
▁nud	-11.5417
▁botch	-11.5421
former	-11.5421
▁Pet	-11.5431
gin	-11.5442
▁Rub	-11.545
dict	-11.5458
rchard	-11.5459
▁soc	-11.546
▁wink	-11.547
sake	-11.5472
▁insist	-11.5478
pion	-11.5479
ctive	-11.5483
▁fuse	-11.5486
▁dresse	-11.5489
ms	-11.5496
II	-11.5497
▁Fair	-11.5497
dies	-11.5503
▁Bor	-11.5515
▁disguis	-11.5521
sis	-11.5522
▁Pur	-11.5523
▁Kie	-11.5535
tell	-11.5539
twe	-11.5543
▁qua	-11.5547
ord	-11.5548
▁cloth	-11.5555
pers	-11.5556
▁oh	-11.5557
▁happ	-11.556
▁Char	-11.5568
tine	-11.5569
▁Barri	-11.5571
▁Si	-11.5572
entious	-11.5575
wanes	-11.559
▁Dol	-11.5606
ateral	-11.5608
taste	-11.561
stance	-11.5616
▁nose	-11.562
olent	-11.5626
olds	-11.5627
▁bet	-11.5631
euv	-11.5635
▁craftsm	-11.5636
▁cash	-11.5637
ervent	-11.5641
lice	-11.5642
▁Andre	-11.5648
tched	-11.5649
▁bond	-11.5651
▁froth	-11.5656
likable	-11.5658
puts	-11.5663
taker	-11.5675
break	-11.5678
lf	-11.568
▁aff	-11.5684
▁belief	-11.5692
nadi	-11.5696
▁brea	-11.5697
di	-11.5698
▁Succe	-11.5699
▁Mul	-11.5703
▁Gro	-11.5707
▁illustrat	-11.5716
▁Beh	-11.5719
▁illuminate	-11.5721
ains	-11.5725
▁Fl	-11.5737
▁jumps	-11.5747
▁Wat	-11.575
trospective	-11.5754
▁mug	-11.5764
▁plum	-11.5768
rant	-11.5771
im	-11.5774
▁port	-11.5778
ortunate	-11.5787
equi	-11.5814
bin	-11.5821
▁Cag	-11.5822
▁Gi	-11.583
rap	-11.5831
lier	-11.5838
▁squa	-11.5839
▁possesse	-11.5847
▁forgiven	-11.5849
▁sel	-11.5852
trick	-11.586
etti	-11.5865
ymbolic	-11.5867
nning	-11.5872
ingles	-11.5881
▁indulge	-11.5887
▁beg	-11.5895
ited	-11.59
▁apt	-11.5903
personal	-11.5908
▁snooze	-11.5908
▁confuse	-11.591
ddie	-11.5914
accid	-11.5918
rable	-11.5927
▁blur	-11.5929
▁Pun	-11.5934
sian	-11.5936
▁phenomena	-11.5939
read	-11.5945
▁rac	-11.5949
10	-11.5951
▁vau	-11.5961
int	-11.5961
pp	-11.597
▁immerse	-11.5976
ender	-11.5976
▁reflecti	-11.5977
sed	-11.5979
▁whine	-11.5979
▁gla	-11.5979
▁coast	-11.5983
▁bre	-11.5984
ue	-11.5984
teful	-11.5986
chest	-11.5995
▁ge	-11.6
▁alienati	-11.6002
▁tame	-11.6008
▁Spe	-11.6011
omb	-11.6011
cup	-11.6016
ght	-11.6017
ses	-11.6018
▁Humor	-11.6022
rn	-11.603
▁trad	-11.6033
▁ador	-11.6037
▁Dad	-11.6038
funct	-11.6039
efinite	-11.6056
▁ballet	-11.6063
▁flag	-11.6066
htick	-11.6076
rating	-11.6083
atric	-11.6091
shines	-11.6107
▁od	-11.6111
▁dar	-11.6112
▁Rit	-11.6116
▁engag	-11.6121
▁access	-11.6123
orn	-11.613
ain	-11.6134
▁motivate	-11.6134
▁achiev	-11.6138
tract	-11.6139
child	-11.6142
scene	-11.6153
interest	-11.6154
▁crawl	-11.6161
▁McC	-11.6163
ellow	-11.6168
▁gu	-11.6172
▁repelle	-11.6177
▁tolera	-11.6178
warm	-11.6179
und	-11.6187
dain	-11.6189
▁Poo	-11.6191
deep	-11.6192
ife	-11.6192
honed	-11.6194
▁Pre	-11.6195
eating	-11.6211
original	-11.6212
lum	-11.6214
▁Rome	-11.6227
eeming	-11.6235
▁coma	-11.6237
br	-11.6237
lyn	-11.6243
▁suffocat	-11.6253
bon	-11.6272
▁barb	-11.6276
▁invent	-11.628
yah	-11.6284
bang	-11.6287
▁Heart	-11.6289
something	-11.6291
▁25	-11.6304
▁spect	-11.6311
production	-11.6313
went	-11.6315
▁Columb	-11.6317
▁balanc	-11.6321
▁Fai	-11.6328
▁Clar	-11.6329
ssion	-11.6329
grands	-11.6331
Not	-11.6337
▁pee	-11.6338
concept	-11.6339
▁Glo	-11.6342
▁intensi	-11.6353
camera	-11.6362
compelling	-11.6373
▁sud	-11.6377
▁Spea	-11.6382
Luc	-11.6385
Doo	-11.6388
boiler	-11.6389
▁Trans	-11.6391
button	-11.6398
▁scrap	-11.6403
95	-11.6406
large	-11.6407
frame	-11.6409
▁Mind	-11.6411
ctor	-11.6424
▁wallo	-11.6427
▁regime	-11.6432
lic	-11.6433
Chou	-11.6436
gon	-11.6438
wanna	-11.6439
▁bow	-11.6442
absorb	-11.6455
camp	-11.6463
suffer	-11.6466
Catholic	-11.6466
vie	-11.6467
Shakespeare	-11.6468
▁scor	-11.6468
drawn	-11.647
tape	-11.6472
burst	-11.6477
appropriate	-11.6478
threaten	-11.648
▁unh	-11.6482
loving	-11.6484
articulate	-11.6484
U	-11.6489
worn	-11.649
▁Schi	-11.649
biz	-11.6495
▁snap	-11.6496
center	-11.6501
wing	-11.6509
▁sincer	-11.6512
gain	-11.6516
violent	-11.6517
sports	-11.6518
▁seal	-11.6519
▁Lu	-11.6521
▁Ins	-11.6526
sympathetic	-11.6526
▁sai	-11.6528
search	-11.653
tish	-11.6534
porter	-11.6537
master	-11.6539
comfort	-11.654
cipher	-11.6543
▁imitat	-11.6545
▁Phi	-11.6547
▁Kar	-11.6562
▁kn	-11.657
▁Ge	-11.6586
erz	-11.6586
stuff	-11.6592
▁predict	-11.6593
▁esc	-11.6599
ip	-11.66
▁poten	-11.6614
oth	-11.6616
ues	-11.6622
biograph	-11.6623
▁Julie	-11.663
▁instruct	-11.6632
▁vulgarit	-11.6632
▁Bou	-11.6636
▁populat	-11.6642
novel	-11.6642
bull	-11.665
▁res	-11.665
dic	-11.6658
▁ret	-11.6658
▁Mari	-11.6666
▁partner	-11.6668
uccin	-11.667
nis	-11.6671
▁smil	-11.6677
▁contemplat	-11.668
third	-11.668
▁Danger	-11.6684
▁Thank	-11.6691
solid	-11.6692
foot	-11.6703
speak	-11.6704
▁Character	-11.6707
ckett	-11.6708
switch	-11.6712
ogether	-11.6719
rious	-11.6722
package	-11.6723
▁Flo	-11.6725
shod	-11.673
▁cere	-11.6739
ali	-11.6741
▁Stri	-11.6748
▁ol	-11.675
nze	-11.6765
▁compose	-11.6768
▁physic	-11.6775
▁Devo	-11.678
ets	-11.6781
Fall	-11.6783
▁Val	-11.6785
▁respon	-11.6786
▁juice	-11.6801
epp	-11.6802
gone	-11.6803
▁Im	-11.681
▁undermin	-11.681
twork	-11.6812
devill	-11.6813
▁dra	-11.6822
Tara	-11.6829
▁terroris	-11.6837
▁Exc	-11.6841
layer	-11.6842
smo	-11.6849
iercing	-11.6862
▁ki	-11.6872
▁trim	-11.6883
anag	-11.6895
▁imagina	-11.6898
boat	-11.6904
▁margin	-11.6904
▁unhapp	-11.6916
finger	-11.6918
eon	-11.6924
ays	-11.6925
▁Israel	-11.6927
▁predic	-11.6927
catch	-11.6933
ssassin	-11.6936
▁int	-11.6937
difference	-11.6939
etto	-11.6939
kids	-11.6942
▁heel	-11.6943
limit	-11.695
▁lazi	-11.695
grant	-11.6951
eparation	-11.6963
▁manipulati	-11.6965
▁aspir	-11.6967
rash	-11.697
▁Pic	-11.6985
umble	-11.6985
lame	-11.6986
▁dire	-11.6992
▁adolescen	-11.6993
▁complic	-11.6995
▁exuberan	-11.6999
▁swashbuckl	-11.6999
▁dash	-11.7
aboo	-11.7004
▁speci	-11.7007
▁SO	-11.7008
▁numb	-11.701
▁fix	-11.701
hola	-11.7021
bell	-11.7038
▁Screenwrit	-11.7043
nteresting	-11.7044
▁Amb	-11.7045
▁heartbreak	-11.7046
burn	-11.7046
▁frighten	-11.7049
▁purport	-11.7053
▁Bol	-11.7054
wave	-11.7062
▁minim	-11.7062
bar	-11.7064
▁receiv	-11.7065
uel	-11.7067
▁sermon	-11.707
▁Boll	-11.7074
platter	-11.7077
atch	-11.7078
▁sociolog	-11.7083
scribe	-11.7083
ural	-11.7085
▁exceed	-11.7087
▁Fes	-11.7087
stro	-11.7088
▁Africa	-11.7093
acting	-11.7093
▁definit	-11.7101
absor	-11.7104
▁sag	-11.7106
▁profession	-11.7108
▁convict	-11.711
rivate	-11.7111
Sophi	-11.7113
coast	-11.7113
normous	-11.7114
worldly	-11.7115
undamental	-11.7115
▁dynami	-11.7115
Pag	-11.7116
▁amateur	-11.7118
bolical	-11.7118
ulgar	-11.7118
bone	-11.7119
▁Euro	-11.7119
colate	-11.7119
version	-11.7119
▁Banderas	-11.712
▁Kubrick	-11.712
▁exempl	-11.712
▁Brilliant	-11.712
▁Compelling	-11.712
▁Disturbing	-11.712
▁Effective	-11.712
▁Elegant	-11.712
▁Frankenstein	-11.712
▁Performance	-11.712
▁Python	-11.712
▁Schweig	-11.712
▁accompanie	-11.712
▁arrogan	-11.712
▁avalanche	-11.712
▁civic	-11.712
▁corporate	-11.712
▁embellish	-11.712
▁encompass	-11.712
▁histrionic	-11.712
▁incorporate	-11.712
▁irrevocabl	-11.712
▁kidnapping	-11.712
▁lethargic	-11.712
▁masquerad	-11.712
▁outweigh	-11.712
▁schizo	-11.712
▁sledgehammer	-11.712
▁sociopath	-11.712
▁subsequent	-11.712
▁undercurrent	-11.712
▁unrepentant	-11.712
▁Musketeer	-11.712
▁arbitrar	-11.712
▁epiphan	-11.712
▁megaplex	-11.712
▁nonconformi	-11.712
▁pummel	-11.712
▁rampant	-11.712
▁robust	-11.712
▁artifact	-11.712
▁deprav	-11.712
▁juxtaposition	-11.712
▁tabloid	-11.712
▁custom	-11.712
▁Burkina	-11.712
▁millenni	-11.712
▁nonjudgmental	-11.712
▁redneck	-11.712
▁maxim	-11.712
▁harangu	-11.712
▁Painful	-11.712
▁inexorabl	-11.712
▁Afghan	-11.712
▁Oprah	-11.712
▁bankrupt	-11.712
▁ecological	-11.712
▁jackass	-11.712
▁Professional	-11.712
▁voyage	-11.712
▁hyperbol	-11.712
▁kitsch	-11.712
imit	-11.712
▁Portug	-11.712
▁Veggie	-11.712
▁Hitler	-11.712
▁blithe	-11.712
▁muscle	-11.712
▁publish	-11.712
▁BMW	-11.712
▁uproarious	-11.712
▁psychedeli	-11.712
▁bastard	-11.712
▁warrior	-11.712
▁unexplain	-11.712
▁milestone	-11.712
▁rekindle	-11.712
▁sprinkl	-11.712
▁brazen	-11.712
▁delirious	-11.712
▁combusti	-11.712
▁Original	-11.712
▁cultivat	-11.712
▁inescapabl	-11.712
▁leg	-11.712
▁soldier	-11.712
▁doofus	-11.712
▁Complete	-11.712
▁League	-11.712
▁boorish	-11.712
▁abhor	-11.712
▁acclaim	-11.712
▁Gianni	-11.712
▁perplex	-11.712
▁exhibit	-11.712
▁retaliat	-11.712
▁Siege	-11.712
▁grateful	-11.712
▁reassuring	-11.712
▁libid	-11.712
▁reckless	-11.712
▁partnership	-11.712
▁connoisseur	-11.712
▁micro	-11.712
dropping	-11.712
▁hotdog	-11.712
▁imbue	-11.712
▁unleashe	-11.712
▁Psycholog	-11.7121
▁prejudice	-11.7121
▁resume	-11.7121
▁atrocious	-11.7121
▁monkey	-11.7121
▁unsuccessful	-11.7121
▁Remarkabl	-11.7121
▁valid	-11.7121
▁77	-11.7121
▁exchange	-11.7121
▁nauseating	-11.7121
▁Pepper	-11.7121
▁mordant	-11.7121
▁personifie	-11.7121
▁kung	-11.7121
▁sibling	-11.7121
uhrman	-11.7121
▁testimonial	-11.7121
▁hippie	-11.7121
▁photo	-11.7121
▁unimpressive	-11.7121
▁slug	-11.7121
▁extensive	-11.7121
▁extension	-11.7121
▁fruit	-11.7121
▁hapless	-11.7121
▁engine	-11.7121
▁pressure	-11.7121
▁scientist	-11.7121
▁Sharp	-11.7122
▁mumbo	-11.7122
▁ingenu	-11.7122
▁unmentionable	-11.7122
▁viewpoint	-11.7122
▁morph	-11.7122
▁spiff	-11.7122
▁victori	-11.7122
▁contribution	-11.7122
▁snake	-11.7122
▁contact	-11.7122
▁desolat	-11.7122
▁athletic	-11.7122
▁fertil	-11.7122
▁lumin	-11.7122
▁renown	-11.7122
▁Weird	-11.7122
▁bowel	-11.7122
▁interminabl	-11.7122
▁miscast	-11.7122
▁miscalculation	-11.7122
hibit	-11.7122
▁percolat	-11.7123
▁Fidel	-11.7123
▁1980	-11.7123
▁heartstring	-11.7123
▁labour	-11.7123
▁professor	-11.7123
▁handicap	-11.7123
Nazi	-11.7123
▁Stan	-11.7123
▁snore	-11.7123
▁Drama	-11.7124
▁rebel	-11.7124
▁yield	-11.7124
▁pregnan	-11.7124
▁ambivalen	-11.7124
▁spiral	-11.7124
▁mountain	-11.7124
▁improvisation	-11.7124
▁anonym	-11.7124
▁sorrowful	-11.7124
▁pollut	-11.7124
▁Elvi	-11.7125
▁Patric	-11.7125
▁setpiece	-11.7125
▁treacher	-11.7125
ort	-11.7125
▁squirm	-11.7125
▁Serious	-11.7126
▁distort	-11.7126
▁headache	-11.7126
▁bliss	-11.7126
▁Drop	-11.7126
▁distill	-11.7127
ashamed	-11.7127
▁plate	-11.7127
▁crank	-11.7128
▁exalt	-11.7128
▁princess	-11.7128
▁preteen	-11.7129
▁wheez	-11.7129
▁tweak	-11.7129
congr	-11.7129
▁bru	-11.7129
▁shiver	-11.7129
▁applie	-11.7129
eople	-11.7129
▁tattoo	-11.7129
▁WW	-11.7129
▁compassionate	-11.713
▁imperfect	-11.713
▁feroci	-11.713
hmal	-11.713
▁discontent	-11.713
▁reduction	-11.713
▁essay	-11.713
▁patroniz	-11.7131
tinent	-11.7131
▁government	-11.7132
▁freight	-11.7132
▁gaze	-11.7132
▁rediscover	-11.7133
▁wafer	-11.7133
▁Deserv	-11.7133
▁Monster	-11.7133
▁jaw	-11.7134
▁unearth	-11.7134
▁anarchist	-11.7135
genital	-11.7135
▁Balk	-11.7135
▁languid	-11.7136
▁conceal	-11.7136
tically	-11.7136
▁Audi	-11.7136
▁smear	-11.7137
precedent	-11.7137
▁exp	-11.7137
▁foster	-11.7137
▁Fred	-11.7138
wealth	-11.7138
▁terri	-11.7138
▁Order	-11.7139
▁survey	-11.7141
umentary	-11.7141
▁reaffirm	-11.7141
▁Odd	-11.7141
▁astounding	-11.7141
▁Dodg	-11.7142
▁kinetic	-11.7142
▁Pomp	-11.7142
▁Altman	-11.7142
▁evade	-11.7143
▁snail	-11.7144
▁laser	-11.7144
▁Guille	-11.7145
▁hostage	-11.7145
▁slather	-11.7146
▁Munch	-11.7146
▁indoor	-11.7146
▁contempt	-11.7147
▁avant	-11.7147
▁fifty	-11.7147
▁Enter	-11.7147
▁blip	-11.7147
▁scriptwriter	-11.7148
▁curse	-11.7148
wick	-11.7148
▁proficient	-11.7149
▁slumm	-11.7149
▁documentarian	-11.7149
▁breast	-11.7149
hip	-11.7149
▁icono	-11.715
▁leftover	-11.7151
▁Space	-11.7151
▁orbit	-11.7151
egg	-11.7151
▁punchline	-11.7151
▁magnet	-11.7151
▁Katz	-11.7152
▁bluster	-11.7154
▁transgressi	-11.7156
▁seesaw	-11.7156
pisi	-11.7156
▁sociological	-11.7157
▁pump	-11.7157
▁Through	-11.7158
zes	-11.7158
▁Accor	-11.7159
▁howler	-11.716
▁accura	-11.716
naugh	-11.716
▁purposeful	-11.716
plift	-11.716
fifth	-11.716
▁Conan	-11.716
▁PB	-11.7161
▁flabb	-11.7161
▁frailt	-11.7161
▁reef	-11.7162
SP	-11.7163
▁Dick	-11.7164
▁Weiss	-11.7165
▁Tunis	-11.7167
bvious	-11.7168
▁distraction	-11.7168
razzle	-11.7169
econd	-11.7169
▁treatise	-11.717
▁affluen	-11.717
▁fir	-11.717
▁trembl	-11.717
▁underscor	-11.717
▁convolution	-11.717
▁euph	-11.7171
▁ramble	-11.7173
full	-11.7173
judgment	-11.7174
▁jaun	-11.7174
gibbe	-11.7174
▁discre	-11.7175
▁option	-11.7175
▁Kang	-11.7175
▁Rib	-11.7176
▁Our	-11.7176
lish	-11.7179
▁Hope	-11.718
▁wreak	-11.718
drift	-11.7181
stringent	-11.7181
▁Franco	-11.7181
▁incl	-11.7182
▁precede	-11.7182
▁glad	-11.7182
base	-11.7183
▁Daring	-11.7183
▁docu	-11.7184
RE	-11.7186
▁purported	-11.7188
▁Bible	-11.719
▁flight	-11.7191
▁disappear	-11.7192
▁Stop	-11.7192
▁ignor	-11.7193
▁cow	-11.7193
▁si	-11.7195
▁claw	-11.7195
▁laborious	-11.7196
▁classifi	-11.7196
endous	-11.7196
▁Screenwriter	-11.7196
▁horrific	-11.7197
errific	-11.7198
talent	-11.72
▁Russo	-11.72
▁sorrow	-11.7201
▁slim	-11.7201
▁differen	-11.7202
Serb	-11.7202
▁dullard	-11.7203
▁deser	-11.7204
▁Fres	-11.7204
▁sees	-11.7206
▁Tang	-11.7207
▁portion	-11.7208
▁cli	-11.7212
▁screwed	-11.7213
▁embod	-11.7213
▁corp	-11.7215
▁fringe	-11.7215
▁contender	-11.7216
▁93	-11.7216
ditional	-11.722
▁collaborati	-11.7225
▁distinction	-11.7226
▁turf	-11.7226
▁audi	-11.7227
▁devote	-11.7228
orial	-11.7229
▁Raim	-11.723
▁mono	-11.7231
▁glacial	-11.7232
▁Doors	-11.7233
teadfast	-11.7235
▁cloak	-11.7235
NY	-11.7237
Tiern	-11.7237
▁diminish	-11.7244
▁rewrit	-11.7244
▁salt	-11.7244
▁satisfactor	-11.7246
▁fleshed	-11.7246
▁sentimentaliz	-11.7249
▁stomp	-11.725
▁Rain	-11.725
▁shambl	-11.7253
mad	-11.7253
▁resolve	-11.7254
▁swoon	-11.7255
anza	-11.7255
▁plod	-11.7256
▁weather	-11.7257
▁brass	-11.7258
▁Terri	-11.7258
▁trail	-11.7258
▁Kim	-11.7259
▁viv	-11.7262
pus	-11.7263
▁manipulat	-11.7264
▁agreeabl	-11.7266
▁boomer	-11.7266
▁stitch	-11.7268
▁pinn	-11.727
▁confrontation	-11.7272
agg	-11.7274
▁Butter	-11.7276
▁replac	-11.7279
▁lobby	-11.7279
▁bank	-11.7281
rowd	-11.7283
▁Close	-11.7284
▁spout	-11.7284
▁route	-11.7284
▁howling	-11.7289
▁respite	-11.7289
▁sleaz	-11.7292
▁str	-11.7294
▁suicid	-11.7295
▁Video	-11.7295
▁fifteen	-11.7296
oppo	-11.7296
▁shell	-11.7297
▁procedur	-11.7297
▁realis	-11.7299
▁accordi	-11.73
▁jumb	-11.73
▁serene	-11.7302
uire	-11.7303
▁pub	-11.7303
▁uncon	-11.7303
▁limb	-11.7314
▁dawn	-11.7314
▁disconnect	-11.7315
▁Dogma	-11.7315
▁pray	-11.7317
▁raptur	-11.7318
▁induce	-11.7318
▁Total	-11.732
▁digit	-11.7323
▁rattl	-11.7324
lumber	-11.7324
▁guise	-11.7326
▁reconcil	-11.7327
▁Frankl	-11.7329
elt	-11.7334
▁PA	-11.7337
acte	-11.7337
▁revisionis	-11.734
▁kiss	-11.7343
▁Creep	-11.7345
▁curl	-11.7347
▁87	-11.7348
dependent	-11.7351
▁Non	-11.7353
▁seller	-11.7356
▁workshop	-11.7357
▁94	-11.7359
▁emphasiz	-11.7359
opping	-11.7361
▁cheapen	-11.7366
▁judg	-11.7366
▁churn	-11.7367
▁griev	-11.7368
▁consumer	-11.737
eapon	-11.7372
▁Teen	-11.7374
▁tolerable	-11.7375
▁Trade	-11.7378
▁Everl	-11.7388
uit	-11.7389
motion	-11.7389
check	-11.7393
▁calibr	-11.7395
▁cook	-11.7399
dult	-11.7407
▁mistaken	-11.7417
▁laud	-11.7418
▁nap	-11.7418
▁bias	-11.742
▁psych	-11.7422
▁Camer	-11.7427
toxic	-11.7428
vin	-11.7433
▁glide	-11.7435
▁meta	-11.7436
▁usher	-11.7437
▁Jani	-11.744
▁despairing	-11.7441
vating	-11.7444
oo	-11.7444
llard	-11.7449
▁staging	-11.7449
change	-11.7455
lberg	-11.7456
▁redundanc	-11.7457
actic	-11.7458
▁Beck	-11.7459
upposed	-11.7459
pectator	-11.746
▁insignifican	-11.746
nni	-11.7462
ystery	-11.7465
▁quas	-11.7466
slow	-11.747
ewis	-11.7472
dated	-11.7474
▁Harbo	-11.7477
nik	-11.7484
▁crudit	-11.7491
▁tickle	-11.7497
▁inflate	-11.7497
ieve	-11.7498
▁Hud	-11.75
▁clamor	-11.75
▁confession	-11.7503
otage	-11.7508
▁unexpl	-11.7509
▁goose	-11.7516
▁adorabl	-11.752
endan	-11.7526
grati	-11.7531
▁rate	-11.7535
▁sati	-11.7537
▁Tro	-11.7544
▁clutch	-11.7545
club	-11.7546
inct	-11.7546
▁boi	-11.7547
lip	-11.7549
deal	-11.7554
▁wr	-11.7555
▁psychodrama	-11.7556
▁permit	-11.756
▁scan	-11.7564
▁flop	-11.7565
▁shar	-11.7569
▁strung	-11.757
▁relat	-11.7574
▁presume	-11.7574
▁Combine	-11.7586
▁trivialize	-11.759
▁Aus	-11.7592
▁bind	-11.7594
▁100-	-11.7596
rey	-11.7598
▁moviemaker	-11.7598
xcellen	-11.7604
bber	-11.7608
▁communicate	-11.7619
▁Carre	-11.7625
▁injur	-11.7626
▁strand	-11.7626
▁partners	-11.7629
yed	-11.763
▁vis	-11.7633
▁trump	-11.7636
▁prevalen	-11.7636
▁Sche	-11.7639
erbic	-11.7641
▁Chance	-11.7644
▁ironi	-11.7645
▁warp	-11.7646
eu	-11.7648
▁civiliz	-11.7651
▁prima	-11.7652
akin	-11.7654
▁whet	-11.7658
▁cuss	-11.7658
▁straining	-11.766
▁lighten	-11.7663
▁fanatical	-11.7664
▁tortur	-11.7666
urning	-11.7677
▁flak	-11.7679
acks	-11.768
stage	-11.7682
▁prisoner	-11.7684
▁scorn	-11.7684
lid	-11.7686
▁rel	-11.7688
▁Phil	-11.769
ound	-11.769
itter	-11.7695
servant	-11.7698
▁skipp	-11.7699
straint	-11.7701
ows	-11.7702
ept	-11.7704
▁Award	-11.7705
▁sheet	-11.7706
pter	-11.7712
vice	-11.7714
▁Jacque	-11.772
▁vap	-11.7723
inder	-11.7727
fill	-11.7728
▁pour	-11.773
▁rape	-11.7733
▁det	-11.7736
▁contra	-11.774
▁zing	-11.7741
enactment	-11.7742
▁Alternate	-11.7749
▁coll	-11.7749
▁willful	-11.7755
pant	-11.7759
eyond	-11.7759
▁arriv	-11.7764
ective	-11.7764
voca	-11.7765
adais	-11.7767
▁ente	-11.777
pot	-11.7778
▁Helm	-11.7779
▁mall	-11.7785
lerate	-11.7788
▁superhero	-11.7789
▁negl	-11.7794
▁filmgo	-11.7794
▁discour	-11.7796
shy	-11.78
▁Cry	-11.7803
▁Vice	-11.7818
▁shocker	-11.7819
slapping	-11.7821
real	-11.7823
▁mortal	-11.7827
▁arch	-11.7833
ordan	-11.7835
▁Pure	-11.7835
▁Move	-11.7838
plo	-11.784
eka	-11.7841
▁sou	-11.7846
▁pursu	-11.7852
▁Carm	-11.7856
▁irk	-11.7857
▁painter	-11.7858
▁driv	-11.7859
▁revolutionar	-11.786
punk	-11.7862
▁note	-11.7865
vy	-11.7883
▁Lag	-11.7886
▁retreat	-11.7889
▁Sy	-11.7897
Hy	-11.7898
▁norm	-11.7899
titch	-11.7901
▁para	-11.7904
amb	-11.7907
otsie	-11.7912
▁stray	-11.7914
urve	-11.792
hart	-11.7922
wen	-11.7923
▁filler	-11.7933
▁Tale	-11.7941
▁implo	-11.7944
▁Holly	-11.7945
erie	-11.7953
ah	-11.797
tep	-11.7972
mma	-11.7987
▁comp	-11.7989
▁Soft	-11.7993
angerous	-11.7998
show	-11.7998
▁fin	-11.8002
ON	-11.8003
▁spouse	-11.8004
▁translate	-11.8009
tur	-11.8017
speci	-11.802
▁ste	-11.8023
bel	-11.8026
chel	-11.8034
▁soup	-11.8035
bill	-11.8037
hirt	-11.8037
▁ripp	-11.8041
penetra	-11.8042
▁groupie	-11.8044
▁Ced	-11.8046
▁polic	-11.8046
isset	-11.8061
▁fence	-11.8086
▁spi	-11.8087
cious	-11.809
chie	-11.8094
unset	-11.8096
char	-11.8099
sane	-11.8119
▁Cit	-11.812
▁bald	-11.8123
▁Ask	-11.8148
bs	-11.8149
▁marked	-11.8155
abl	-11.8157
▁abo	-11.8173
▁resurrect	-11.8174
uddle	-11.8177
▁70	-11.8178
▁3-	-11.8181
▁devi	-11.8185
bender	-11.8186
▁elect	-11.8196
▁participat	-11.8197
pin	-11.8205
▁gour	-11.8205
▁storm	-11.8211
▁lett	-11.8218
ault	-11.8221
▁Hel	-11.8226
▁sk	-11.8244
bald	-11.8247
▁reserve	-11.8272
▁contribute	-11.8274
capabl	-11.8274
feminis	-11.8275
appoint	-11.8295
res	-11.8295
inted	-11.8297
rudge	-11.8298
▁var	-11.8299
has	-11.8308
examin	-11.8309
▁jol	-11.8314
aging	-11.8315
pha	-11.8316
▁entrance	-11.832
mate	-11.8322
▁log	-11.8323
mmers	-11.8323
heck	-11.8334
blade	-11.8353
▁Brooms	-11.8354
moto	-11.8359
▁spr	-11.8361
eel	-11.8376
banging	-11.838
ull	-11.8389
▁worm	-11.8392
believer	-11.84
seat	-11.8401
9-	-11.8404
▁stranger	-11.8404
▁conceiv	-11.8407
▁Stea	-11.8409
▁Delh	-11.8411
acher	-11.8413
▁wrestl	-11.8415
sen	-11.842
ater	-11.842
▁frustrat	-11.8442
▁profanit	-11.8447
vis	-11.845
▁absen	-11.8466
▁stepp	-11.8477
▁z	-11.8486
▁intro	-11.8487
ool	-11.8491
ini	-11.8491
▁area	-11.8508
opped	-11.8513
ginal	-11.8528
twin	-11.854
hough	-11.8541
som	-11.8545
▁rut	-11.8545
orbid	-11.8552
▁Spa	-11.8552
▁sampl	-11.8555
bert	-11.8556
▁subt	-11.8557
part	-11.857
▁names	-11.8571
▁humbl	-11.8574
▁sap	-11.8575
▁rail	-11.8581
ollerb	-11.8586
▁jam	-11.8599
▁Ken	-11.86
▁Bern	-11.8604
vi	-11.8604
lich	-11.8605
thon	-11.8615
aft	-11.8616
▁beating	-11.8621
▁pros	-11.8623
▁medic	-11.8625
▁wildl	-11.8628
▁heap	-11.8634
6-	-11.8635
timate	-11.8638
▁closed	-11.864
ipped	-11.8654
ocking	-11.8655
▁squad	-11.866
fang	-11.866
pal	-11.8662
▁blar	-11.8664
fusion	-11.8667
▁plann	-11.8668
titude	-11.867
▁fantastical	-11.8672
name	-11.8673
▁seren	-11.8682
▁Sat	-11.8692
▁Bro	-11.8693
▁Heid	-11.8694
seek	-11.8697
▁dated	-11.8705
dren	-11.8705
▁Soc	-11.8725
atrix	-11.8726
clas	-11.873
location	-11.8731
evaluat	-11.8738
▁cur	-11.8746
oli	-11.8747
▁indicati	-11.875
▁surpris	-11.8753
▁preferr	-11.8754
▁delin	-11.8757
sala	-11.8762
cide	-11.8774
▁dump	-11.8775
rm	-11.8776
loc	-11.8777
Na	-11.8781
mble	-11.8786
▁Apt	-11.879
tag	-11.8794
▁readi	-11.8796
▁pessimis	-11.8799
▁memorial	-11.8804
▁scari	-11.8805
▁Enti	-11.8809
father	-11.8834
cumulat	-11.8835
▁Nice	-11.8839
▁sha	-11.8848
▁Norma	-11.8851
litter	-11.8855
▁Laz	-11.8859
omi	-11.8866
bear	-11.8873
▁bid	-11.8875
▁decen	-11.8879
vil	-11.8884
▁strut	-11.8892
▁zi	-11.8895
zan	-11.8905
dar	-11.8911
mull	-11.8911
▁unhappi	-11.8913
allowe	-11.8913
pse	-11.8917
ru	-11.8926
▁perv	-11.8927
▁splendo	-11.8927
▁reache	-11.8946
bu	-11.8951
▁conceive	-11.8962
ush	-11.8964
existent	-11.8976
▁mute	-11.9004
▁creak	-11.9015
fortun	-11.9017
▁realit	-11.9018
▁owners	-11.9022
▁mod	-11.9028
tu	-11.9034
▁Gai	-11.904
▁Fr	-11.904
20	-11.9059
▁Jes	-11.9065
▁Preten	-11.9068
ficial	-11.9069
fic	-11.907
▁Ep	-11.908
aken	-11.9088
▁desi	-11.9095
AS	-11.9096
▁complet	-11.9099
▁convinc	-11.9099
▁feed	-11.91
▁Lar	-11.9105
▁anim	-11.9116
▁sur	-11.9116
▁fumble	-11.9117
▁sup	-11.9123
guide	-11.9127
ago	-11.9138
▁alienate	-11.9144
▁Had	-11.9147
iate	-11.9159
▁Att	-11.9169
▁Sta	-11.9178
▁Clau	-11.918
▁robbe	-11.9198
au	-11.9199
deaf	-11.9201
▁legi	-11.9215
▁Bru	-11.9215
▁troubl	-11.9219
▁thro	-11.9221
▁ster	-11.9222
wat	-11.9223
▁Add	-11.9223
▁mut	-11.9231
rill	-11.9241
▁warn	-11.9242
▁humili	-11.9243
dress	-11.9249
but	-11.9252
cia	-11.9256
▁admir	-11.9271
▁gen	-11.9275
vitation	-11.9277
▁cam	-11.9281
▁reduc	-11.9287
hum	-11.929
wa	-11.9293
spool	-11.9294
▁capt	-11.9305
gg	-11.9306
cience	-11.9318
▁Sens	-11.9321
▁grease	-11.9329
thern	-11.9331
ims	-11.9338
▁Ash	-11.9346
▁mars	-11.9347
olita	-11.9358
▁Waters	-11.9361
▁Morg	-11.9362
huck	-11.9366
▁dealer	-11.9367
ller	-11.9371
ishing	-11.9374
▁orchestrate	-11.9382
▁dile	-11.9384
▁Hat	-11.9388
ynching	-11.9389
▁hall	-11.939
angel	-11.9397
olog	-11.9403
▁qu	-11.9404
▁toss	-11.9417
exploitati	-11.9422
▁Ap	-11.9427
▁goth	-11.9427
▁messing	-11.9434
▁skir	-11.9437
etched	-11.9446
▁archive	-11.9455
▁Trip	-11.9456
cul	-11.9457
ula	-11.9459
antom	-11.946
agoni	-11.9468
▁abs	-11.947
▁stimulat	-11.9473
cal	-11.9477
rebra	-11.9478
tured	-11.9482
▁dared	-11.9484
turb	-11.9496
▁honorabl	-11.9497
fight	-11.9528
▁debat	-11.9538
others	-11.9538
▁dec	-11.9542
▁simmer	-11.9542
isco	-11.9542
▁Gl	-11.9549
sey	-11.9556
came	-11.9561
lle	-11.9565
▁genero	-11.9566
▁ethnicit	-11.957
fia	-11.9576
▁ugli	-11.9576
▁emb	-11.9582
▁60	-11.9584
wry	-11.9588
▁mudd	-11.959
▁ladd	-11.9596
take	-11.9608
▁Almo	-11.9618
▁Hus	-11.9625
ox	-11.9625
▁reside	-11.9631
soon	-11.9653
standard	-11.9659
▁liveli	-11.9669
nks	-11.9669
ray	-11.9671
▁epo	-11.9678
▁Godf	-11.9683
▁miser	-11.9684
obbl	-11.9684
don	-11.9687
allmark	-11.9688
▁react	-11.969
▁shad	-11.9696
▁Zi	-11.9698
▁Simp	-11.9702
▁desp	-11.9705
▁myst	-11.9707
▁logical	-11.9708
aunt	-11.9712
onde	-11.9722
▁prec	-11.9739
aki	-11.9749
▁bark	-11.975
je	-11.9752
▁Assa	-11.9767
▁Roa	-11.9785
▁forest	-11.9788
nance	-11.9789
▁sca	-11.9792
▁Viewe	-11.9797
trom	-11.9798
nge	-11.9798
▁cheesie	-11.9798
force	-11.9807
89	-11.9808
quent	-11.9811
dding	-11.9834
tinker	-11.9839
▁ev	-11.9848
▁demeano	-11.9849
▁Mars	-11.985
sident	-11.9854
mpulsive	-11.9885
ddle	-11.9887
ola	-11.9887
▁Um	-11.9888
▁nominat	-11.9893
aver	-11.9915
▁Ji	-11.9917
lk	-11.9936
▁evok	-11.994
reading	-11.9941
▁unsatisf	-11.9942
humping	-11.9967
▁aggra	-11.9972
▁won	-11.9972
▁Frie	-11.9975
luff	-11.9978
▁bab	-11.9983
advi	-11.9993
mish	-11.9995
odil	-11.9998
▁esp	-12.0001
▁regal	-12.0004
egal	-12.0008
▁impos	-12.0012
▁expedi	-12.0017
rprise	-12.0017
▁ag	-12.0018
▁sly	-12.003
▁Rey	-12.0042
undli	-12.0055
▁definiti	-12.0058
▁alb	-12.0059
▁concentrat	-12.0063
▁Cuba	-12.0065
talk	-12.0067
▁apl	-12.007
coon	-12.0073
▁bounce	-12.0074
tation	-12.008
▁describ	-12.0088
▁write	-12.0093
matic	-12.0096
shape	-12.0099
ranch	-12.0102
▁SL	-12.0109
pi	-12.0117
▁autop	-12.0121
▁frustrate	-12.0124
▁ve	-12.013
initia	-12.0132
▁misogynist	-12.0139
LE	-12.0153
▁oppos	-12.0161
▁careen	-12.0163
▁dive	-12.0168
▁bill	-12.0181
pran	-12.0182
▁Tak	-12.0184
▁cad	-12.0186
egian	-12.0186
▁vary	-12.0191
▁expir	-12.0195
▁Ara	-12.0213
▁mater	-12.0218
tho	-12.0219
been	-12.0221
dramatic	-12.0227
▁link	-12.0236
put	-12.0239
▁y	-12.024
ermin	-12.0246
avel	-12.0268
cked	-12.027
road	-12.0271
▁delete	-12.0282
praise	-12.0283
▁viol	-12.0286
aro	-12.0297
eport	-12.0307
iny	-12.031
lay	-12.0311
▁ext	-12.0332
▁morali	-12.0332
▁sooth	-12.0332
tes	-12.0339
raig	-12.034
j	-12.0342
▁Aff	-12.0345
nds	-12.0351
▁chi	-12.0351
einforce	-12.0359
▁behavi	-12.0361
▁impri	-12.0367
rizzle	-12.0368
ubb	-12.037
nship	-12.0375
physical	-12.0382
▁shop	-12.0391
passionate	-12.0392
▁handi	-12.0393
▁rely	-12.0393
ters	-12.0393
hole	-12.0395
oriz	-12.0397
sight	-12.0401
burning	-12.0404
▁Bette	-12.0405
▁Lauren	-12.0407
ati	-12.0413
dios	-12.0414
▁Pear	-12.0417
▁stone	-12.0421
▁entranc	-12.0425
▁rocke	-12.0425
▁infus	-12.0436
alter	-12.0438
▁Dem	-12.0453
▁vic	-12.0455
arc	-12.0472
obs	-12.0472
▁14	-12.0476
tiate	-12.0481
▁aristocra	-12.0481
unt	-12.0491
▁reserv	-12.0495
rope	-12.0498
▁Wes	-12.0499
ipper	-12.0506
dox	-12.0513
▁dual	-12.052
ause	-12.0526
best	-12.0535
▁clo	-12.0559
98	-12.056
▁Pret	-12.0563
point	-12.0571
▁recreat	-12.0575
nted	-12.058
▁Rea	-12.058
first	-12.0581
▁mini	-12.0586
▁Lim	-12.0587
sophisticate	-12.0596
▁sparkl	-12.0599
control	-12.0602
fresh	-12.0612
usion	-12.0613
realize	-12.0615
ones	-12.0619
V	-12.0619
fun	-12.062
▁sorr	-12.0622
▁lur	-12.0629
▁sentimentali	-12.0643
gag	-12.0647
kilte	-12.065
▁grin	-12.0655
print	-12.0665
▁envelope	-12.0668
▁exposi	-12.0677
▁Holl	-12.0691
duck	-12.0692
▁lock	-12.0706
humor	-12.0708
▁Bai	-12.0714
▁undo	-12.073
Hollywood	-12.0744
fici	-12.0746
▁conjur	-12.0747
eandering	-12.0767
▁moder	-12.0771
▁selecti	-12.0788
rks	-12.079
wed	-12.0793
▁Pen	-12.081
gical	-12.0819
wh	-12.082
nn	-12.0838
▁Ze	-12.0848
mmer	-12.0855
▁cul	-12.0863
family	-12.0866
ckles	-12.0873
▁clim	-12.0883
av	-12.0901
mou	-12.0907
believe	-12.0916
▁hurr	-12.0922
uge	-12.0925
anie	-12.0929
obble	-12.0932
dazzle	-12.0933
▁spous	-12.0945
pent	-12.0953
▁Bus	-12.0954
▁goofi	-12.0958
bind	-12.0958
ince	-12.0963
jo	-12.0969
▁tie	-12.098
▁lat	-12.0984
plicit	-12.0989
▁sadde	-12.0992
▁Lou	-12.0994
music	-12.0996
emark	-12.0998
▁defens	-12.1002
ugger	-12.1007
die	-12.1009
imps	-12.1016
▁deconstruct	-12.1016
▁symboli	-12.1019
aud	-12.1024
chief	-12.1033
IS	-12.104
behaving	-12.1042
rying	-12.1047
▁activi	-12.1054
agger	-12.106
▁Believ	-12.107
sack	-12.1072
▁concer	-12.1073
Dot	-12.1076
inspire	-12.1084
dependen	-12.1084
▁unchar	-12.1091
▁Dre	-12.1099
ille	-12.1104
vey	-12.1105
apid	-12.1106
genre	-12.1107
▁Rom	-12.1108
▁rad	-12.1108
▁Smoke	-12.111
▁Hold	-12.1111
▁indicat	-12.1116
▁Poli	-12.1117
quisite	-12.1118
▁novelist	-12.112
fil	-12.1124
pleasure	-12.1126
▁Mons	-12.1127
▁Magi	-12.1131
▁degrad	-12.1141
▁burl	-12.1144
get	-12.1145
geri	-12.1149
▁bod	-12.1159
▁min	-12.1162
mother	-12.1165
clock	-12.1166
▁gas	-12.117
energ	-12.1171
▁cro	-12.1172
▁consist	-12.1174
John	-12.1176
▁Lov	-12.1183
inking	-12.1185
adult	-12.1186
▁ser	-12.1186
▁Pai	-12.1187
▁sway	-12.119
three	-12.1192
realistic	-12.1194
▁upset	-12.1196
tin	-12.1197
amusing	-12.1197
enou	-12.1204
ira	-12.1204
develope	-12.1206
vs	-12.1206
enl	-12.1206
engaging	-12.121
▁Lam	-12.1218
issue	-12.1219
rehears	-12.122
▁Plu	-12.1223
ounce	-12.123
essed	-12.123
arch	-12.1238
kie	-12.1245
▁characterize	-12.1245
mar	-12.1247
▁Wen	-12.1258
urrie	-12.126
impossibl	-12.1263
▁Spar	-12.1266
type	-12.1268
▁necess	-12.1272
nett	-12.1276
25	-12.1279
▁argu	-12.1289
progress	-12.1293
▁formal	-12.1297
tti	-12.1303
▁pul	-12.1307
▁suspens	-12.1307
▁mal	-12.1307
depth	-12.1313
▁robot	-12.1318
service	-12.132
tense	-12.1338
▁brim	-12.1341
▁alon	-12.1344
▁mixe	-12.1348
▁fre	-12.1348
flop	-12.1352
contemporar	-12.1352
shock	-12.1355
brain	-12.1362
Brit	-12.1362
och	-12.1363
▁moan	-12.1363
masterpiece	-12.1367
cinematic	-12.1372
subtle	-12.1382
▁ooz	-12.1382
▁tonal	-12.1386
appealing	-12.1387
▁kin	-12.1392
dles	-12.1394
▁spe	-12.1396
case	-12.1402
authentic	-12.1402
manipulative	-12.1405
frequent	-12.1408
▁vo	-12.1412
▁diver	-12.1412
blue	-12.1413
obsess	-12.1417
12	-12.1418
burden	-12.1423
wide	-12.1423
profile	-12.1425
manner	-12.1426
tto	-12.1432
▁substitut	-12.1435
endur	-12.1435
broke	-12.1443
reflection	-12.1443
nonsens	-12.1445
elegant	-12.1449
office	-12.1452
execut	-12.1453
million	-12.1453
assured	-12.1453
wife	-12.1456
che	-12.1457
adequate	-12.1457
Barber	-12.1458
▁Sk	-12.1458
swallow	-12.1459
buddy	-12.146
clutch	-12.1461
critiqu	-12.1463
wake	-12.1463
strung	-12.1463
15	-12.1466
birth	-12.1466
dozen	-12.1467
DV	-12.1468
distinct	-12.1472
identity	-12.1479
winner	-12.148
box	-12.1484
home	-12.1485
Far	-12.1486
rief	-12.1486
▁pleas	-12.1498
crack	-12.1501
claim	-12.1506
▁worrie	-12.1509
▁continual	-12.1509
▁Generat	-12.151
▁prank	-12.1512
▁Celeb	-12.1514
▁south	-12.1514
cha	-12.1516
education	-12.1518
▁Ant	-12.1523
▁notabl	-12.1525
employ	-12.1528
sufficient	-12.1529
▁Cro	-12.1535
ffe	-12.1538
Com	-12.1539
rds	-12.1541
rgh	-12.1542
sacrifice	-12.1542
iterate	-12.1551
stine	-12.1553
ocket	-12.1568
tering	-12.1569
creation	-12.1569
consciousness	-12.1571
▁comprehen	-12.1572
▁el	-12.1575
porn	-12.1577
▁organize	-12.158
▁Danis	-12.1583
complicat	-12.1585
finish	-12.161
ots	-12.1612
▁grit	-12.1622
shooting	-12.1626
ookie	-12.1626
excus	-12.1628
wire	-12.1636
erotic	-12.1638
colleg	-12.1638
▁defe	-12.1642
astic	-12.1644
gun	-12.1644
▁conspi	-12.1647
▁unin	-12.1649
concern	-12.165
ours	-12.1656
teen	-12.1659
warming	-12.1673
▁roads	-12.1677
▁overt	-12.1679
▁qui	-12.168
TA	-12.1686
▁Zo	-12.1686
ctress	-12.1691
analy	-12.1693
▁Joa	-12.1698
▁Kun	-12.17
▁Glor	-12.1703
nominat	-12.1707
splash	-12.1713
nail	-12.1716
parod	-12.1717
▁hug	-12.1721
99	-12.1722
pre	-12.1724
enetra	-12.1724
Mart	-12.1735
ridge	-12.1739
eep	-12.1748
hash	-12.1751
▁tun	-12.1752
brand	-12.1762
nstein	-12.1762
▁piz	-12.1768
▁gro	-12.1777
▁actioner	-12.178
Wi	-12.1783
dance	-12.1785
▁sloppi	-12.1787
▁overlo	-12.1789
▁repu	-12.1796
arad	-12.1796
▁ful	-12.18
breath	-12.1802
▁unsuspe	-12.182
par	-12.1823
omething	-12.1823
importan	-12.1832
▁Fle	-12.1839
ji	-12.184
owing	-12.184
arade	-12.184
recki	-12.1847
▁wil	-12.185
ique	-12.1857
▁sensation	-12.1857
▁existe	-12.1858
su	-12.1859
rguabl	-12.1866
▁circ	-12.1876
▁cra	-12.188
▁Inter	-12.1882
▁democra	-12.1886
▁diverti	-12.189
rational	-12.189
bor	-12.1892
▁clinic	-12.1898
ett	-12.1899
ect	-12.1902
omed	-12.1903
abi	-12.1906
▁nightmar	-12.1908
▁Cri	-12.1909
killer	-12.1917
uddy	-12.1921
ranks	-12.1922
▁startle	-12.1924
▁Za	-12.1924
ister	-12.1926
▁swoo	-12.1928
Cent	-12.1929
lapping	-12.1942
▁compel	-12.1943
gious	-12.1947
▁65	-12.1947
luck	-12.1949
eal	-12.195
nation	-12.1954
▁Disgu	-12.1966
▁contend	-12.1972
ssential	-12.1974
danc	-12.1981
▁structur	-12.1991
nick	-12.1992
founding	-12.1992
mel	-12.1993
▁hypocri	-12.1998
▁efficien	-12.1999
▁abundan	-12.2005
loft	-12.2007
▁eloquen	-12.201
ys	-12.2015
▁India	-12.2016
▁dysfunction	-12.2019
pie	-12.2019
▁distress	-12.2021
▁rememb	-12.2033
defin	-12.2034
▁unsettl	-12.2038
tolerable	-12.2041
irteen	-12.2043
raw	-12.2045
▁increas	-12.2046
▁smoothe	-12.2046
gra	-12.2046
▁Fulf	-12.2047
▁Goo	-12.2059
▁pervers	-12.2064
▁epi	-12.2068
▁organ	-12.2069
▁gam	-12.207
uva	-12.2073
Meo	-12.2075
riumph	-12.2076
tub	-12.208
▁brat	-12.2081
▁repeat	-12.2083
raffic	-12.2085
▁provocat	-12.209
echnical	-12.2092
▁ridicul	-12.2093
▁Te	-12.2093
▁Tai	-12.2094
slash	-12.2094
▁Bubb	-12.2095
winkl	-12.2096
▁rib	-12.2097
bbl	-12.21
▁Argent	-12.2102
Fell	-12.2105
▁interact	-12.2105
ntelligent	-12.2109
▁interpret	-12.211
tribut	-12.2111
xhilarating	-12.2112
▁concoct	-12.2112
eticulous	-12.2113
▁Griffi	-12.2113
eardotcom	-12.2114
loquent	-12.2114
▁immedia	-12.2114
▁chronic	-12.2115
ING	-12.2116
railer	-12.2117
enuine	-12.2119
▁recogni	-12.2119
eliberate	-12.212
▁Nickelodeon	-12.212
▁appetiz	-12.212
▁diploma	-12.212
▁embroil	-12.212
▁ennui	-12.212
▁lobotom	-12.212
▁recruit	-12.212
#	-12.212
=	-12.212
ophobi	-12.212
▁Astonishing	-12.212
▁Brazil	-12.212
▁Disappointing	-12.212
▁Photographe	-12.212
▁Spectacular	-12.212
▁adjective	-12.212
▁bludgeon	-12.212
▁catastroph	-12.212
▁crescendo	-12.212
▁diatribe	-12.212
▁discipline	-12.212
▁egregious	-12.212
▁elliptical	-12.212
▁engulf	-12.212
▁ethnograph	-12.212
▁flashbulb	-12.212
▁gymnast	-12.212
▁italicize	-12.212
▁manifestation	-12.212
▁motorcycle	-12.212
▁navigate	-12.212
▁pencil	-12.212
▁prostitute	-12.212
▁rhetoric	-12.212
▁ricochet	-12.212
▁sandwich	-12.212
▁skeleton	-12.212
▁skyscraper	-12.212
▁testosterone	-12.212
▁transplant	-12.212
▁virulent	-12.212
▁Resource	-12.212
apocalyp	-12.212
▁Communi	-12.212
▁Digital	-12.212
▁Egypt	-12.212
▁afflict	-12.212
▁decrepit	-12.212
▁deposit	-12.212
▁kitchen	-12.212
▁resuscitat	-12.212
▁shriek	-12.212
▁valedictor	-12.212
knuckle	-12.212
▁SAT	-12.212
▁Skillful	-12.212
▁Vague	-12.212
▁dystopia	-12.212
▁Journal	-12.212
▁elegiac	-12.212
▁predator	-12.212
▁astronaut	-12.212
▁quintessential	-12.212
▁scrutin	-12.212
▁stubborn	-12.212
▁antagonis	-12.212
▁tunnel	-12.212
colonialis	-12.212
▁disagree	-12.212
▁marathon	-12.212
▁tantaliz	-12.212
▁devilish	-12.212
mutilati	-12.212
▁improbabilit	-12.212
AND	-12.212
▁Silberstein	-12.212
▁immortal	-12.212
▁salacious	-12.212
▁declare	-12.212
▁wizard	-12.212
▁razor	-12.212
▁Warrior	-12.212
▁mishandle	-12.212
▁polemic	-12.212
▁rainbow	-12.212
▁patrolm	-12.212
configur	-12.212
▁Orlean	-12.212
▁comparative	-12.212
▁mechanism	-12.212
▁swirl	-12.212
▁constrict	-12.212
▁circular	-12.212
▁Initial	-12.212
▁indomitab	-12.212
▁enliven	-12.212
▁annoyance	-12.212
▁augment	-12.212
▁logistical	-12.212
▁quibble	-12.212
▁dampen	-12.212
▁indigesti	-12.212
▁Silber	-12.212
▁unspeakabl	-12.212
▁derail	-12.212
▁straddle	-12.212
▁GUN	-12.212
▁rhapsodize	-12.212
▁prominent	-12.212
▁reassure	-12.212
▁curtain	-12.2121
▁submerg	-12.2121
▁dishonor	-12.2121
▁hormon	-12.2121
▁irreveren	-12.2121
▁eclipse	-12.2121
▁gulp	-12.2121
▁Ignor	-12.2121
▁Fis	-12.2121
▁queasy	-12.2121
▁Freudian	-12.2121
▁snicker	-12.2121
colleague	-12.2121
▁Swift	-12.2121
▁anthropolog	-12.2121
▁Uncertain	-12.2121
▁sarcas	-12.2121
▁intimidate	-12.2121
▁buffoon	-12.2121
▁gorefest	-12.2121
▁ineptitude	-12.2121
▁squint	-12.2121
▁Build	-12.2121
▁expound	-12.2121
▁insinuati	-12.2121
▁crummy	-12.2121
▁obscen	-12.2121
▁Nerv	-12.2121
▁schtick	-12.2121
▁Marvelous	-12.2121
▁massacre	-12.2121
▁daydream	-12.2121
▁waltze	-12.2121
▁alarming	-12.2121
▁flavour	-12.2121
▁spawn	-12.2121
▁narcoti	-12.2121
▁principle	-12.2121
▁harvest	-12.2122
doctrin	-12.2122
▁escapade	-12.2122
▁quinte	-12.2122
▁garner	-12.2122
▁lawyer	-12.2122
▁clique	-12.2122
▁commodi	-12.2122
fathom	-12.2122
▁shrug	-12.2122
▁Usual	-12.2122
▁ransack	-12.2122
▁stadium	-12.2122
▁fritter	-12.2122
▁Hmm	-12.2122
elimina	-12.2123
▁dimwit	-12.2123
▁undeserv	-12.2123
dia	-12.2123
▁undetermin	-12.2123
▁broache	-12.2123
▁cadence	-12.2123
▁reversal	-12.2123
▁secular	-12.2123
shack	-12.2123
▁mimic	-12.2123
▁RING	-12.2123
▁solipsis	-12.2123
▁Splash	-12.2123
▁overflow	-12.2123
▁Expand	-12.2123
▁sixties	-12.2123
▁sleight	-12.2123
▁cataly	-12.2124
▁embark	-12.2124
▁irreparabl	-12.2124
bysmal	-12.2124
▁Bergman	-12.2124
▁oblivious	-12.2124
▁division	-12.2124
▁196	-12.2124
▁Playboy	-12.2124
▁spun	-12.2124
▁affectation	-12.2124
▁dwarf	-12.2124
▁pornograph	-12.2125
CK	-12.2125
▁twirl	-12.2125
▁deflate	-12.2125
▁Stagger	-12.2125
▁pepper	-12.2125
▁melod	-12.2125
▁extremist	-12.2126
▁feardotcom	-12.2126
▁anatom	-12.2126
NT	-12.2126
▁portent	-12.2126
▁kitten	-12.2126
hhh	-12.2126
▁luv	-12.2126
▁meticulous	-12.2126
▁wincing	-12.2126
▁Memor	-12.2127
▁False	-12.2127
▁transfer	-12.2127
▁empathize	-12.2127
▁gawk	-12.2127
▁800	-12.2127
▁fireball	-12.2127
▁guru	-12.2127
▁Recall	-12.2128
usband	-12.2128
league	-12.2128
▁Texa	-12.2129
▁24	-12.2129
▁Berg	-12.2129
▁Diverting	-12.2129
▁Hje	-12.2129
anguin	-12.2129
emonstrate	-12.2129
▁Utter	-12.213
stensibl	-12.213
▁zealous	-12.213
▁hospital	-12.213
▁Stuff	-12.213
paste	-12.213
▁fidget	-12.213
▁doodle	-12.2131
▁Trains	-12.2131
▁damsel	-12.2131
▁Exec	-12.2131
▁Highlight	-12.2131
▁gratify	-12.2131
▁carniv	-12.2132
▁dabbl	-12.2132
▁communication	-12.2132
▁Superb	-12.2132
▁neuros	-12.2132
▁rigorous	-12.2132
▁lampoon	-12.2133
▁devious	-12.2133
fledg	-12.2134
▁elude	-12.2134
▁spinoff	-12.2134
calorie	-12.2134
▁heavyweight	-12.2134
▁decisive	-12.2135
▁Battle	-12.2135
▁completist	-12.2135
▁Georgian	-12.2136
▁facade	-12.2136
▁170	-12.2136
▁launch	-12.2137
▁quiver	-12.2137
▁enervat	-12.2137
▁unimagina	-12.2137
buster	-12.2137
▁decline	-12.2138
▁collage	-12.2139
▁publicist	-12.2139
▁Annie	-12.2139
▁skewe	-12.2139
▁Sluggish	-12.2139
▁glint	-12.2139
▁month	-12.214
▁bypass	-12.214
▁blunder	-12.214
▁preschool	-12.214
▁unimp	-12.2141
▁Mitch	-12.2141
▁scuz	-12.2141
▁pageant	-12.2142
▁prize	-12.2142
ES	-12.2142
▁fudge	-12.2142
azz	-12.2142
taneo	-12.2142
IT	-12.2142
▁amusement	-12.2143
▁enforce	-12.2143
▁gobble	-12.2143
▁eighth	-12.2144
▁overdose	-12.2144
▁Driver	-12.2144
▁RO	-12.2144
▁jostl	-12.2145
▁govern	-12.2145
▁overload	-12.2146
▁persecut	-12.2146
▁tinsel	-12.2146
▁provocation	-12.2147
▁sailor	-12.2149
ograph	-12.215
italize	-12.2151
▁pawn	-12.2151
biscu	-12.2151
▁Bubble	-12.2152
xious	-12.2152
▁jacket	-12.2152
▁misfit	-12.2153
▁profit	-12.2153
▁Twin	-12.2154
▁climb	-12.2155
▁trend	-12.2156
ec	-12.2156
▁betray	-12.2156
hronicle	-12.2156
▁179	-12.2156
amines	-12.2156
▁patri	-12.2157
▁Wander	-12.2157
▁Comed	-12.2158
▁downplay	-12.2159
▁barbers	-12.2159
▁synthe	-12.216
▁vex	-12.2161
▁decom	-12.2161
▁hustler	-12.2161
▁seiz	-12.2161
▁energize	-12.2161
▁snazzy	-12.2162
▁pound	-12.2162
bird	-12.2162
▁Brain	-12.2163
▁hunk	-12.2163
▁cloud	-12.2164
▁respective	-12.2164
inflict	-12.2165
▁Translati	-12.2166
minent	-12.2168
▁Sleep	-12.2169
Fil	-12.217
▁reinvent	-12.217
dden	-12.217
▁Brod	-12.217
▁preserv	-12.217
▁persistent	-12.217
orific	-12.217
▁shameful	-12.2171
▁overpower	-12.2171
▁relish	-12.2173
servation	-12.2173
▁mirth	-12.2173
heat	-12.2173
▁silence	-12.2174
mphet	-12.2174
▁bottomless	-12.2174
▁feather	-12.2174
▁cringe	-12.2176
▁blessed	-12.2176
▁Sub	-12.2176
▁faint	-12.2177
▁undergo	-12.2177
deadening	-12.2177
▁stupe	-12.2177
▁criticiz	-12.2178
cie	-12.2178
▁saint	-12.2179
▁household	-12.218
▁Canad	-12.218
aintain	-12.218
▁Clean	-12.2181
▁upstage	-12.2181
▁consig	-12.2181
▁interior	-12.2182
▁invade	-12.2182
▁trumpet	-12.2183
▁digest	-12.2184
▁72-	-12.2185
▁whistle	-12.2185
▁Passabl	-12.2186
▁26-	-12.2186
▁bundl	-12.2186
▁hysteric	-12.2187
▁Genev	-12.2187
▁irr	-12.2188
▁latent	-12.2188
ens	-12.2188
▁apartment	-12.2189
cendi	-12.219
▁Kah	-12.219
▁Maud	-12.2191
ggie	-12.2192
▁Freud	-12.2193
▁Thought	-12.2193
▁indigna	-12.2195
▁Plot	-12.2195
▁Heather	-12.2197
stopping	-12.2198
▁Turn	-12.2198
▁Whale	-12.2198
uka	-12.2198
▁royal	-12.2199
▁frisk	-12.22
▁merchan	-12.22
▁plung	-12.2201
▁patter	-12.2201
▁endorse	-12.2201
▁unp	-12.2201
▁vanishe	-12.2202
▁recreation	-12.2204
▁daz	-12.2206
▁sermoniz	-12.2206
▁Gentle	-12.2206
▁croon	-12.2208
▁heartbeat	-12.221
▁Arth	-12.2211
▁cello	-12.2212
riad	-12.2213
▁misunderst	-12.2216
▁assert	-12.2217
▁boho	-12.2217
open	-12.2219
▁passive	-12.222
odar	-12.2221
▁offset	-12.2223
▁distressing	-12.2223
▁equation	-12.2223
▁disclos	-12.2224
▁democracie	-12.2224
▁Baby	-12.2224
▁dodge	-12.2224
Flick	-12.2226
▁fiend	-12.2226
roblem	-12.2227
realist	-12.2227
▁Sim	-12.2229
▁surfer	-12.2229
gloo	-12.2229
▁Ree	-12.223
▁reign	-12.223
▁blush	-12.223
▁buddi	-12.2231
▁decorat	-12.2231
nk	-12.2231
▁Margo	-12.2232
bra	-12.2232
▁Kirs	-12.2233
▁meddl	-12.2233
▁Keen	-12.2233
▁scoop	-12.2234
ssip	-12.2234
ippi	-12.2236
▁Ph	-12.2236
▁quot	-12.2237
▁split	-12.2237
▁BM	-12.2238
cter	-12.2244
▁shelve	-12.2246
▁linear	-12.2246
▁popula	-12.225
velle	-12.2251
▁suppose	-12.2252
▁shootout	-12.2252
napper	-12.2253
▁bona	-12.2253
▁democrac	-12.2254
▁gull	-12.2255
▁Electr	-12.2256
▁smok	-12.2256
▁flux	-12.2257
▁misty	-12.2257
▁Crumm	-12.2258
bobb	-12.2259
▁Wom	-12.226
▁Apple	-12.2263
cus	-12.2263
▁artwork	-12.2264
▁shading	-12.2264
▁endeavo	-12.2264
▁Schu	-12.2264
▁tactic	-12.2266
cable	-12.2266
▁awake	-12.2268
plent	-12.2269
▁lonel	-12.2269
▁appar	-12.227
▁Solo	-12.2272
last	-12.2273
ran	-12.2273
▁supplie	-12.2277
▁discourag	-12.2278
▁honey	-12.2279
flexi	-12.2279
ashi	-12.228
▁comeback	-12.228
▁Writ	-12.2282
▁librar	-12.2283
▁helpful	-12.2283
▁Ty	-12.2283
ediocr	-12.2284
▁col	-12.2284
▁Mason	-12.2284
▁historic	-12.2285
imiz	-12.2289
prehensi	-12.2291
andering	-12.2291
▁65-	-12.2295
esurrecti	-12.2296
▁nurse	-12.2299
eptua	-12.2301
molest	-12.2301
▁trunc	-12.2301
diction	-12.2302
▁underplay	-12.2302
raq	-12.2305
▁Berk	-12.2308
teria	-12.2311
▁Mam	-12.2312
▁tempt	-12.2313
▁Bland	-12.2316
demeano	-12.2317
▁Yank	-12.2319
▁swashbuckler	-12.232
storm	-12.232
rich	-12.2321
▁revolt	-12.2323
oodle	-12.2323
▁leather	-12.2324
▁pep	-12.2324
▁fleet	-12.2325
▁Bot	-12.2325
▁peev	-12.2329
▁occup	-12.2333
dramatiz	-12.2335
▁sweaty	-12.2336
acle	-12.2345
▁revive	-12.2345
▁violin	-12.2351
frai	-12.2353
▁theatric	-12.2355
gues	-12.2355
▁Moder	-12.2359
▁Swing	-12.236
▁gather	-12.236
▁lev	-12.2362
flagging	-12.2362
▁capa	-12.2363
▁unforgiv	-12.2363
dul	-12.2365
▁devoted	-12.2365
▁1.	-12.2369
▁representation	-12.2369
▁Admirabl	-12.237
urgeo	-12.2374
▁Brave	-12.2378
phr	-12.238
rio	-12.238
ulloc	-12.238
▁headline	-12.2382
▁grumbl	-12.2385
▁chemical	-12.2387
▁Litera	-12.2389
NO	-12.239
▁attenti	-12.2391
▁paro	-12.2391
▁barr	-12.2392
▁radio	-12.2392
▁eternal	-12.2396
▁Cleve	-12.2397
▁16	-12.2398
notti	-12.24
anchi	-12.24
▁Must	-12.2403
▁enact	-12.2403
▁Sparkl	-12.2404
rton	-12.2405
unders	-12.2407
▁derisi	-12.2407
▁bigot	-12.241
oque	-12.2411
grubb	-12.2413
WE	-12.2414
dept	-12.2416
▁outward	-12.2416
▁Meet	-12.2418
▁shun	-12.2421
▁Gil	-12.2422
▁utiliz	-12.2423
dd	-12.2423
▁Engag	-12.2426
▁cyber	-12.2426
▁soaring	-12.243
▁potato	-12.243
▁hugg	-12.2434
▁bef	-12.2437
rnest	-12.2438
▁groaner	-12.2438
▁Wei	-12.2439
▁Tol	-12.2441
▁salvage	-12.2444
verse	-12.2445
▁Chain	-12.2445
▁infatuat	-12.2447
▁perception	-12.2447
▁obscurit	-12.2447
▁mud	-12.2447
▁girlfriend	-12.245
ame	-12.245
▁meeting	-12.2452
▁stress	-12.2452
▁dictate	-12.2452
▁jock	-12.2453
▁continent	-12.2453
acto	-12.2454
▁eyeball	-12.2456
▁native	-12.246
▁turntablis	-12.246
▁sales	-12.2461
▁whip	-12.2461
▁item	-12.2464
za	-12.2465
tura	-12.2465
▁Brim	-12.2467
▁chef	-12.2468
▁splatter	-12.247
▁minis	-12.2472
decent	-12.2474
vial	-12.2477
▁irre	-12.2478
inematic	-12.248
▁affirmation	-12.2482
vas	-12.2484
oodles	-12.2487
tempora	-12.249
▁soli	-12.2492
▁idol	-12.2498
hout	-12.2498
▁doctor	-12.2499
gna	-12.2507
rack	-12.2509
▁strategic	-12.251
▁batter	-12.2511
into	-12.2512
▁succ	-12.2514
tional	-12.2514
▁occupation	-12.2518
▁Drag	-12.2523
▁foll	-12.2526
nage	-12.2528
▁Lit	-12.2528
▁clam	-12.2529
ensitive	-12.2551
▁steril	-12.2552
narch	-12.2553
ordina	-12.2559
▁Freu	-12.2561
▁delve	-12.2562
equiv	-12.2565
rum	-12.2566
kum	-12.2567
▁adorn	-12.2568
▁scorch	-12.2569
inclusive	-12.257
▁standout	-12.257
ailor	-12.2571
▁wisp	-12.2575
▁aisle	-12.2581
▁condu	-12.2581
adjust	-12.2582
volve	-12.2583
▁Town	-12.2584
▁22	-12.2595
▁bungl	-12.2595
▁75	-12.2596
▁captive	-12.26
▁gesture	-12.2602
▁Hug	-12.2606
▁negative	-12.2614
tain	-12.2615
▁minu	-12.2616
rade	-12.2617
Domin	-12.2619
▁mistak	-12.262
cing	-12.262
axi	-12.2621
▁truck	-12.2624
burger	-12.2626
scath	-12.2632
SE	-12.2636
▁negate	-12.2639
equate	-12.2639
▁witnesse	-12.264
▁industrial	-12.264
▁cafe	-12.264
▁confin	-12.2645
▁delay	-12.2646
hirteen	-12.2651
▁runner	-12.2653
▁Stain	-12.2655
▁instill	-12.2656
▁rep	-12.2659
▁fixat	-12.2661
▁drow	-12.2662
lative	-12.2665
▁salv	-12.2666
▁Boot	-12.2669
ners	-12.267
ER	-12.267
▁dissecti	-12.2671
▁assess	-12.2673
▁cooki	-12.2675
▁guid	-12.2676
istering	-12.2676
▁Bell	-12.2679
du	-12.2679
mpress	-12.2679
▁liberati	-12.2686
▁Nik	-12.2695
ris	-12.27
▁grandi	-12.27
▁Prim	-12.2709
ston	-12.2709
▁summ	-12.2712
commercial	-12.2714
trusive	-12.272
agna	-12.2724
andid	-12.2724
▁organiz	-12.2725
distinguishe	-12.2726
urtur	-12.273
▁pupp	-12.2731
▁trimm	-12.2738
▁gray	-12.274
▁disma	-12.2742
erring	-12.2746
rest	-12.275
▁defici	-12.2751
▁Inc	-12.2755
▁sturdi	-12.2756
▁dearly	-12.2761
ssured	-12.2761
uld	-12.2764
▁Amos	-12.2764
cca	-12.2766
licit	-12.2769
▁Escape	-12.2769
azine	-12.2777
▁herring	-12.2778
▁candle	-12.2779
lander	-12.2781
rsion	-12.2787
rrifying	-12.2789
▁Brad	-12.2797
▁Ran	-12.2798
posed	-12.2799
lphi	-12.28
▁insensitiv	-12.2802
▁broke	-12.2808
works	-12.2809
▁Escap	-12.2811
▁educate	-12.2812
ollo	-12.2816
cation	-12.2817
LA	-12.2818
vapor	-12.2819
demand	-12.2822
▁ratio	-12.2824
gression	-12.2825
▁thunder	-12.2825
▁philosopher	-12.2827
▁debt	-12.2828
▁reported	-12.283
▁trivial	-12.2833
▁workman	-12.2837
jokes	-12.284
ylan	-12.2842
▁unrem	-12.2843
amiliar	-12.2847
entist	-12.2855
▁lau	-12.2857
▁Stat	-12.2857
mus	-12.2857
▁mail	-12.2859
▁cream	-12.2859
▁em	-12.286
shion	-12.286
▁syn	-12.2864
revi	-12.2864
▁shel	-12.2868
▁burden	-12.2868
▁unconne	-12.287
▁disgrace	-12.287
▁Norri	-12.2876
▁Prope	-12.2878
eaks	-12.288
umbling	-12.288
▁Es	-12.2881
▁serviceab	-12.2882
▁parodie	-12.2886
▁unfu	-12.2894
▁Cr	-12.2896
rgas	-12.2897
▁tang	-12.2906
present	-12.2908
▁stup	-12.2909
IV	-12.2916
▁ideolog	-12.2918
phan	-12.2919
dolph	-12.292
estern	-12.2931
▁40-	-12.2934
▁twin	-12.2943
ige	-12.2948
▁hij	-12.2948
ggle	-12.2962
eat	-12.2962
▁Heavy	-12.2968
mania	-12.2969
▁gui	-12.2969
ple	-12.2971
▁Tell	-12.2977
▁ooze	-12.2979
▁mope	-12.2983
▁robotic	-12.2989
▁deli	-12.2991
▁ou	-12.2993
lass	-12.2994
structive	-12.2995
ott	-12.3001
▁Suspe	-12.3001
▁cine	-12.3006
▁unreli	-12.3011
stab	-12.3017
▁befall	-12.3018
▁6	-12.3044
▁blight	-12.3046
rved	-12.3047
▁hooker	-12.3048
▁injustice	-12.305
▁budd	-12.3053
loath	-12.3053
space	-12.3058
nade	-12.3068
▁cleav	-12.3077
text	-12.3082
righteous	-12.3087
minate	-12.3094
kno	-12.3095
derbe	-12.3099
▁shor	-12.31
▁Hum	-12.3103
store	-12.3103
▁brow	-12.3103
▁arguabl	-12.3105
roni	-12.3107
▁bedevil	-12.3107
milie	-12.3107
ssive	-12.3113
establish	-12.3118
ert	-12.312
▁Barre	-12.3132
▁snaps	-12.3133
isual	-12.3141
▁mourn	-12.3143
▁chok	-12.3143
▁cracker	-12.3144
bus	-12.3144
▁Shaw	-12.3147
ano	-12.315
fication	-12.3169
▁myster	-12.3171
▁Lead	-12.3177
▁indulg	-12.3177
▁AM	-12.3182
▁lips	-12.3183
▁intern	-12.3189
▁surfe	-12.319
extr	-12.3193
▁Confus	-12.3197
aniel	-12.3197
▁99	-12.3203
▁Pierc	-12.3205
▁rapt	-12.321
thless	-12.3215
▁flopp	-12.3217
▁Critic	-12.3219
▁integrate	-12.3219
▁degrade	-12.3219
coat	-12.3224
atest	-12.3229
eartbreak	-12.3229
▁Mus	-12.3232
▁stimulate	-12.3238
ortho	-12.3238
▁Fri	-12.3242
▁Ryo	-12.3243
agging	-12.3244
▁Seek	-12.3244
merci	-12.3244
▁intoleran	-12.3249
▁consci	-12.325
nte	-12.325
tray	-12.3257
elicious	-12.3259
nfluence	-12.3267
▁pleasur	-12.3273
ield	-12.3274
▁impersonati	-12.3284
rcia	-12.3294
▁admirer	-12.3296
▁Believe	-12.3296
ngle	-12.3304
▁activis	-12.3311
recip	-12.3319
iation	-12.3322
quee	-12.3325
tw	-12.3327
lash	-12.3335
▁tid	-12.3336
relat	-12.3342
▁Conten	-12.3344
▁crapp	-12.3346
reward	-12.3347
scr	-12.3347
▁tree	-12.3349
▁wanna	-12.3358
▁moist	-12.3364
azzling	-12.3377
▁deem	-12.3387
▁stepmo	-12.3387
▁regimen	-12.3393
ghou	-12.3408
wist	-12.3411
▁gle	-12.3418
▁glanc	-12.3422
dora	-12.3434
▁hail	-12.3441
▁transcenden	-12.3453
▁Alternat	-12.3459
▁kilt	-12.3459
ndition	-12.3467
▁freshen	-12.3476
tle	-12.3481
ustic	-12.349
▁uh	-12.3502
zant	-12.3503
▁boiler	-12.3503
tenth	-12.3505
ibl	-12.3506
▁formalis	-12.351
cho	-12.3516
udd	-12.353
olving	-12.354
▁sharpen	-12.3547
▁Shan	-12.355
▁Bart	-12.355
▁dad	-12.355
aptivate	-12.3552
ibilit	-12.3557
▁crave	-12.3561
▁bows	-12.3562
The	-12.3566
▁underl	-12.3569
Vi	-12.3569
▁hobb	-12.357
▁heroi	-12.3576
icki	-12.3579
▁bed	-12.3583
▁integrat	-12.36
Marine	-12.3603
▁skit	-12.3608
▁Kl	-12.3614
ire	-12.3614
foundl	-12.3618
▁gush	-12.3621
▁beer	-12.3622
▁Horri	-12.3626
▁hover	-12.3641
ncent	-12.3649
▁decor	-12.3649
▁Sun	-12.3651
▁domin	-12.3657
▁chain	-12.3667
pare	-12.367
▁mesh	-12.3678
▁popul	-12.368
unc	-12.3684
bash	-12.3688
▁swe	-12.3689
Za	-12.3702
▁Bola	-12.3712
▁regurgitat	-12.3721
pia	-12.3733
▁Eu	-12.3734
verting	-12.3736
▁beast	-12.3736
make	-12.3739
▁Cre	-12.3744
▁bless	-12.3745
▁mag	-12.3749
▁dazzle	-12.3757
note	-12.3764
▁Sw	-12.3769
▁untu	-12.3778
▁Harm	-12.378
oll	-12.3783
▁lab	-12.3784
onstant	-12.3791
unnam	-12.3804
▁inanit	-12.3805
row	-12.3805
omania	-12.3806
▁suppl	-12.3809
maze	-12.3811
lu	-12.3811
stami	-12.3814
dent	-12.3815
▁unre	-12.382
▁shore	-12.3826
kies	-12.3834
▁McCr	-12.3839
▁crossing	-12.384
promot	-12.3845
avour	-12.3853
omin	-12.3853
rbi	-12.3854
urle	-12.3866
▁rive	-12.387
uration	-12.3883
▁urin	-12.3883
▁ple	-12.389
▁sill	-12.3896
icab	-12.3897
immi	-12.3908
▁nurtur	-12.3909
▁barbe	-12.391
▁throat	-12.3912
geni	-12.3914
outs	-12.3933
osse	-12.3933
▁wince	-12.3946
eager	-12.3947
▁Boo	-12.3949
▁Mat	-12.3956
insel	-12.3958
rock	-12.3959
aker	-12.3965
▁Nei	-12.3966
▁Elm	-12.397
▁alter	-12.397
▁Seve	-12.3971
▁mate	-12.3972
▁fortif	-12.3976
▁notic	-12.3978
mming	-12.3984
▁underw	-12.3991
▁sul	-12.3999
alley	-12.3999
▁gl	-12.4009
hine	-12.4013
mless	-12.4024
▁bitch	-12.4039
▁Lone	-12.4042
vine	-12.4044
▁mischie	-12.4053
▁piss	-12.4057
gero	-12.4057
▁provinc	-12.4059
▁Celebr	-12.406
▁hog	-12.4065
▁Shu	-12.4074
njoyabl	-12.4078
stor	-12.408
▁programm	-12.4084
▁Oliv	-12.4087
fix	-12.4089
▁conn	-12.4095
▁motivat	-12.4096
▁violate	-12.4098
wo	-12.4101
▁lay	-12.4108
▁captivat	-12.4113
▁ballo	-12.4116
▁Int	-12.412
ccid	-12.412
▁thri	-12.4126
▁crystalli	-12.4132
omes	-12.4132
mail	-12.4133
▁Set	-12.4138
crip	-12.4145
▁mus	-12.4145
▁Rang	-12.4148
▁woo	-12.4159
▁Travi	-12.4179
▁cring	-12.418
fille	-12.4182
▁Pas	-12.4189
tra	-12.4193
▁lazie	-12.4199
nda	-12.4207
▁Explo	-12.4212
nti	-12.4216
▁befuddl	-12.4218
▁ravag	-12.4223
ips	-12.4223
Fried	-12.4224
▁ke	-12.4225
amped	-12.4228
▁conscien	-12.4233
▁gritti	-12.424
ilk	-12.4247
▁ranc	-12.4249
elcome	-12.4256
▁Involv	-12.4258
nflinching	-12.4258
gie	-12.4259
trict	-12.4259
▁Tow	-12.4266
▁rope	-12.4269
buyer	-12.4272
▁rott	-12.4275
▁chas	-12.428
pled	-12.4282
idget	-12.4292
▁foo	-12.4293
▁je	-12.4302
▁stoke	-12.4306
▁recess	-12.431
dre	-12.4315
▁Harl	-12.432
▁surp	-12.4321
evolve	-12.4322
love	-12.433
azing	-12.433
▁Song	-12.434
▁fra	-12.4361
▁Prop	-12.4369
▁Top	-12.437
▁trou	-12.4375
▁minut	-12.4378
ail	-12.4379
ines	-12.4379
▁sty	-12.4382
pol	-12.4391
tel	-12.4405
▁immers	-12.4411
▁inspect	-12.4414
pression	-12.442
WA	-12.4421
▁Guar	-12.4426
find	-12.4428
rie	-12.4431
▁unif	-12.4432
▁swimm	-12.4436
▁Fantas	-12.4438
▁Color	-12.4438
describ	-12.4445
gant	-12.4449
spire	-12.4449
strange	-12.445
▁Lac	-12.4457
▁snooz	-12.4469
rough	-12.447
gline	-12.4471
fy	-12.4478
▁cruelt	-12.4481
enha	-12.4486
▁Crit	-12.4507
▁undern	-12.4508
▁Est	-12.4514
▁categoriz	-12.4516
olish	-12.452
rin	-12.4522
ental	-12.4522
▁juggl	-12.4522
enia	-12.4529
wank	-12.4529
uart	-12.453
title	-12.4532
▁plant	-12.4536
from	-12.4542
vative	-12.455
▁actua	-12.4556
vies	-12.456
▁deepe	-12.4561
▁preferabl	-12.457
▁accom	-12.4572
▁mer	-12.4573
▁Bang	-12.4579
▁dece	-12.4579
▁8-	-12.4585
▁explosi	-12.4586
▁experienc	-12.4587
amp	-12.4593
▁som	-12.4596
▁untid	-12.4601
▁dram	-12.4608
▁sle	-12.4615
ult	-12.4621
tted	-12.463
arily	-12.4634
▁spee	-12.4637
▁plague	-12.4647
grandi	-12.4659
gus	-12.4669
▁Ser	-12.4676
▁rot	-12.4678
▁bowl	-12.4679
▁Mood	-12.468
▁Fam	-12.4688
shine	-12.4692
▁genes	-12.4709
▁Tune	-12.4709
▁Shame	-12.4719
eld	-12.4741
▁fighter	-12.4744
quisition	-12.4754
▁Drive	-12.4764
inning	-12.4764
▁familia	-12.4775
ozen	-12.4786
nel	-12.4792
bble	-12.4793
▁enable	-12.4794
▁Depressi	-12.4806
▁tran	-12.481
▁Christin	-12.4813
▁Elmo	-12.4818
tom	-12.4819
ostal	-12.4819
▁sop	-12.4822
bri	-12.4826
edit	-12.4829
25-	-12.483
los	-12.4842
heon	-12.4843
hal	-12.485
▁lover	-12.4855
oral	-12.4864
▁costum	-12.4864
entity	-12.4877
▁tape	-12.4882
baller	-12.4883
limp	-12.4883
▁ups	-12.4893
ilence	-12.4894
avera	-12.4899
bott	-12.4902
▁uns	-12.4902
▁wade	-12.4905
▁unwa	-12.4908
mat	-12.491
▁Marin	-12.4928
scription	-12.4945
▁delet	-12.4945
▁miles	-12.4945
feed	-12.4962
shap	-12.4963
uned	-12.4963
Yas	-12.4969
▁eva	-12.4974
ashing	-12.4976
▁ap	-12.4984
earl	-12.502
▁Pri	-12.5021
icious	-12.5041
▁Lavi	-12.5063
aliz	-12.5063
fu	-12.5068
lodding	-12.5069
▁thr	-12.507
▁neu	-12.5078
pment	-12.5086
▁Diar	-12.5088
etty	-12.5097
▁pube	-12.5098
▁cou	-12.5099
with	-12.5125
▁Lea	-12.514
depress	-12.5147
▁deriv	-12.5162
dogmati	-12.5183
armed	-12.5213
reach	-12.5223
win	-12.5224
▁Unc	-12.5238
pense	-12.5243
▁Mea	-12.525
▁Gan	-12.5251
liber	-12.5267
ana	-12.527
mogen	-12.5294
▁Kra	-12.5306
tt	-12.5312
linking	-12.5318
▁wine	-12.5329
▁polite	-12.533
org	-12.533
tight	-12.5346
pple	-12.5348
▁devastat	-12.5348
amina	-12.5353
▁arouse	-12.5358
▁fri	-12.5372
▁Lau	-12.5374
eta	-12.5379
aq	-12.5385
▁rouse	-12.5386
▁Ber	-12.5387
▁Hog	-12.5393
▁Kat	-12.5396
elve	-12.5398
ential	-12.5402
driv	-12.5409
longs	-12.5411
hett	-12.5414
▁ben	-12.5417
tane	-12.5423
▁mill	-12.5428
▁admi	-12.5428
▁Deli	-12.5432
iv	-12.5435
▁tact	-12.5437
▁island	-12.5438
ience	-12.5442
▁invit	-12.5443
ebra	-12.5444
▁20-	-12.5451
esperate	-12.5455
ride	-12.5455
▁cas	-12.5457
nowball	-12.5463
association	-12.5469
▁impo	-12.5473
▁Elle	-12.5474
▁internal	-12.5475
▁sna	-12.5476
▁adore	-12.5482
nne	-12.5483
▁Nat	-12.549
siz	-12.55
▁whoop	-12.5506
▁bombs	-12.5515
▁ignoran	-12.5524
▁treacl	-12.5525
▁tighten	-12.5541
▁associat	-12.5548
▁crushe	-12.5557
▁bugg	-12.5566
ost	-12.5572
▁Zoo	-12.5578
bbit	-12.5579
roduction	-12.5581
▁sanit	-12.5587
alize	-12.5593
▁Pasa	-12.5593
▁reve	-12.5593
▁inst	-12.5597
▁unco	-12.5601
onchalant	-12.5607
rel	-12.563
▁Pos	-12.5638
▁rever	-12.5642
simila	-12.5644
▁Olympi	-12.5645
oward	-12.5646
otal	-12.5655
ino	-12.5655
▁fad	-12.5657
lete	-12.566
lus	-12.5669
▁conce	-12.5681
unner	-12.5694
▁grosses	-12.5698
▁ei	-12.5705
tant	-12.5709
cats	-12.5712
▁Farm	-12.5716
▁tank	-12.5723
▁sold	-12.5725
minist	-12.5732
▁innovat	-12.5737
▁cor	-12.5737
▁exam	-12.5744
▁capab	-12.5746
scient	-12.5756
▁Bac	-12.5767
▁gruel	-12.577
▁bomba	-12.5773
exploit	-12.5784
▁Suns	-12.579
ubert	-12.5791
▁position	-12.5799
▁Buck	-12.58
uffle	-12.5802
llusion	-12.5807
▁consume	-12.5807
▁mine	-12.5813
ify	-12.5815
▁Sin	-12.5816
referen	-12.5818
sland	-12.5818
▁hom	-12.5826
nter	-12.5827
nial	-12.5834
het	-12.5837
aries	-12.5845
▁Eye	-12.5846
▁cub	-12.5851
till	-12.5853
▁orchestrat	-12.5857
tton	-12.5857
▁virtuosi	-12.5869
▁relocat	-12.5873
▁hank	-12.5875
ea	-12.5881
bitt	-12.5882
▁ensnar	-12.5886
bling	-12.5897
▁thud	-12.5904
orpor	-12.5914
▁visualiz	-12.5916
▁Meat	-12.592
bl	-12.5925
please	-12.5929
cker	-12.594
who	-12.5943
▁wel	-12.5956
▁exi	-12.5968
▁greas	-12.597
▁predi	-12.5987
gnanc	-12.6009
▁Ham	-12.601
▁facet	-12.6011
erox	-12.6012
▁Consist	-12.6013
ya	-12.602
▁Shi	-12.6025
▁distanc	-12.6027
▁Suc	-12.6031
▁moti	-12.6038
ngha	-12.6044
ams	-12.6044
▁aw	-12.6057
▁compete	-12.607
appearing	-12.6072
▁ensnare	-12.6082
▁fling	-12.6083
▁bestow	-12.6093
une	-12.6093
75	-12.614
▁Soul	-12.6142
▁hoop	-12.6148
say	-12.6157
▁conc	-12.6165
▁Laugh	-12.618
vel	-12.6185
▁visualize	-12.6185
▁Hands	-12.6196
▁Stur	-12.6198
hel	-12.62
tral	-12.6202
▁robber	-12.6218
backs	-12.623
cket	-12.623
hol	-12.6236
▁ran	-12.6247
▁ferv	-12.6253
eeling	-12.6254
lade	-12.6266
▁Press	-12.6266
▁evolv	-12.6267
▁Berlin	-12.6268
set	-12.6269
ndi	-12.6275
▁overa	-12.6277
▁therap	-12.629
▁Jul	-12.6294
▁Rosa	-12.6295
cial	-12.6311
niz	-12.6326
▁Olymp	-12.6333
▁Goldm	-12.6347
▁eas	-12.6349
aling	-12.6362
chew	-12.6363
▁Bed	-12.6368
▁rider	-12.6374
uzo	-12.638
bur	-12.6407
▁torp	-12.6407
ef	-12.6416
▁Ten	-12.6421
▁teeny	-12.6423
sure	-12.6445
rt	-12.6452
simil	-12.6456
science	-12.6463
mu	-12.6467
▁Mana	-12.6481
edy	-12.6482
▁calib	-12.6484
▁mainl	-12.6496
lain	-12.6499
HE	-12.6502
uan	-12.6504
▁spli	-12.6515
ss	-12.6517
▁caus	-12.6525
▁Vil	-12.6531
▁editor	-12.6533
plic	-12.6542
esome	-12.655
oud	-12.655
30	-12.6556
▁documentar	-12.6568
▁char	-12.6585
▁sappi	-12.6588
▁chim	-12.6595
sses	-12.6598
cryin	-12.6601
▁agree	-12.6617
▁forgo	-12.6623
▁Kal	-12.6623
▁maid	-12.6623
pony	-12.6626
▁outrun	-12.6632
cally	-12.6651
▁wail	-12.666
▁dorm	-12.6668
▁Clue	-12.6672
▁don	-12.6679
easy	-12.6681
▁Blo	-12.6685
▁den	-12.6686
arts	-12.6697
▁Shat	-12.6702
▁Swan	-12.6704
▁accepta	-12.6706
▁Kurd	-12.6706
▁editi	-12.6711
▁introspecti	-12.672
ucker	-12.6729
▁Dri	-12.6739
▁fatalis	-12.6741
tim	-12.6743
▁humiliat	-12.6755
▁splend	-12.6763
ivate	-12.6764
▁ascen	-12.677
▁propel	-12.6772
liz	-12.6774
▁perf	-12.6781
▁Wor	-12.6784
▁surge	-12.6799
▁sensu	-12.6805
▁homi	-12.6818
ggin	-12.682
ulative	-12.6834
Capr	-12.6852
fa	-12.6859
sual	-12.6859
▁underr	-12.6863
nice	-12.6871
nfide	-12.688
▁gal	-12.689
jor	-12.689
tered	-12.6906
uffocate	-12.6909
mmy	-12.691
▁Fairl	-12.691
▁Sai	-12.6929
tan	-12.6932
izen	-12.6949
▁presid	-12.6949
amble	-12.6955
ussie	-12.6957
▁moron	-12.6957
▁superf	-12.6961
▁dramatize	-12.697
▁Burst	-12.6992
rial	-12.701
▁homo	-12.7011
crust	-12.7019
▁hea	-12.7024
▁faci	-12.7024
dience	-12.7026
▁sadist	-12.7027
▁pessimist	-12.7044
37	-12.7058
▁restate	-12.7061
▁hous	-12.7062
▁Pera	-12.7068
▁invi	-12.7069
▁Nan	-12.7079
thic	-12.7081
▁pres	-12.7086
att	-12.7092
▁ni	-12.7098
addy	-12.7106
▁baffle	-12.7107
▁Plod	-12.7118
justifie	-12.7121
pag	-12.7123
▁adv	-12.7124
parable	-12.713
ft	-12.7136
ssociation	-12.7141
▁exhilarate	-12.7156
▁aut	-12.7178
oma	-12.7178
cc	-12.7179
ehearsal	-12.7191
quant	-12.7193
mal	-12.7193
rais	-12.7198
90	-12.72
leg	-12.7203
▁expe	-12.7205
netic	-12.7222
nish	-12.7231
Augustin	-12.7232
▁floo	-12.7233
▁Sli	-12.7236
▁Brea	-12.7249
▁stifle	-12.725
▁enhanc	-12.7253
reparation	-12.7256
setting	-12.7257
Se	-12.7269
llum	-12.7271
▁Kille	-12.7276
ator	-12.7277
▁spooki	-12.7293
erg	-12.7294
▁Cyn	-12.7294
▁repetiti	-12.7297
▁adheren	-12.7301
vert	-12.7308
▁dys	-12.731
▁Inde	-12.7318
west	-12.732
ndering	-12.7321
fish	-12.7326
▁Deb	-12.7328
▁Dogm	-12.7329
adly	-12.7332
▁satisfact	-12.7332
▁populate	-12.7337
ambling	-12.7337
▁qual	-12.7338
▁Tre	-12.7346
▁imper	-12.7355
rapping	-12.7364
ws	-12.7365
legate	-12.7365
▁pena	-12.7382
reek	-12.7401
▁interfer	-12.7403
▁disp	-12.7406
Abra	-12.7409
▁horrifie	-12.7409
▁ram	-12.7427
▁nationalis	-12.7434
▁botche	-12.7435
▁Hit	-12.7441
isgui	-12.7447
lta	-12.7447
not	-12.7453
▁Gilli	-12.7471
cks	-12.7472
▁responsi	-12.7477
▁teache	-12.7477
▁flu	-12.7478
riety	-12.7483
erating	-12.7491
▁2-	-12.7499
Vit	-12.7512
anding	-12.7521
▁crazi	-12.7522
ario	-12.7542
ision	-12.7545
▁goo	-12.7552
pass	-12.7557
▁photographe	-12.7557
under	-12.7563
string	-12.7563
▁weari	-12.7566
▁Colli	-12.758
olly	-12.758
▁hol	-12.7581
veni	-12.7598
▁plagu	-12.7605
pl	-12.7611
ifty	-12.7614
ngs	-12.7615
▁Jak	-12.7618
icked	-12.7623
▁Trie	-12.7629
modate	-12.7629
ei	-12.7633
▁dogma	-12.7645
ollapse	-12.7646
▁neg	-12.7651
ili	-12.7652
ridi	-12.7653
▁sexis	-12.766
unter	-12.766
▁Wan	-12.7661
istance	-12.7665
little	-12.7669
▁venge	-12.7673
rpor	-12.7674
▁impresse	-12.7675
▁juggle	-12.7679
alk	-12.7682
▁incarnate	-12.7684
ags	-12.7691
▁coat	-12.7712
▁bal	-12.7717
▁Herm	-12.7722
▁ref	-12.7722
Le	-12.7722
▁psychi	-12.7725
▁fantas	-12.7725
97	-12.7739
▁Ene	-12.7744
nchant	-12.7749
▁sample	-12.7758
▁Lin	-12.7765
rive	-12.7771
▁tre	-12.7772
getic	-12.7776
fri	-12.7778
oldie	-12.7787
tions	-12.7791
▁preten	-12.7792
▁meld	-12.7797
▁suggesti	-12.7799
rence	-12.7806
entin	-12.7836
▁desir	-12.7846
▁rumbl	-12.7846
eaven	-12.7856
rned	-12.7857
mento	-12.7857
▁adhere	-12.7867
tupid	-12.7874
▁Rem	-12.7876
olorful	-12.7892
orry	-12.7914
flu	-12.7926
qualifie	-12.7943
▁wrestle	-12.7953
anet	-12.7961
dr	-12.7968
oxic	-12.7973
▁rehashe	-12.7978
ographical	-12.7983
athos	-12.7987
▁opportuni	-12.8
▁crosse	-12.801
mmed	-12.8017
▁eleg	-12.8035
lect	-12.8035
▁preci	-12.8038
racing	-12.804
▁Driv	-12.8048
▁reco	-12.8048
duct	-12.8055
▁reg	-12.8061
rries	-12.8063
isi	-12.8081
▁Lat	-12.8082
▁movi	-12.8084
▁spic	-12.8087
▁sevent	-12.8089
▁cum	-12.8093
▁cal	-12.8093
▁befuddle	-12.8107
ossibl	-12.8129
▁Iv	-12.8139
reput	-12.8148
52	-12.8152
mira	-12.8155
mpresse	-12.8156
siast	-12.816
▁Mol	-12.816
▁oddit	-12.8164
thi	-12.8166
▁castle	-12.8172
▁adher	-12.8176
▁plug	-12.818
▁conf	-12.819
visi	-12.8204
emise	-12.8234
▁bea	-12.8237
nts	-12.8241
idi	-12.8243
▁crystal	-12.8254
▁fumbl	-12.8255
▁verit	-12.8261
▁Blut	-12.8271
▁competen	-12.8276
hei	-12.8277
uted	-12.8291
alm	-12.8299
▁Enjoy	-12.8299
▁err	-12.8303
▁Ged	-12.8309
consistenc	-12.8312
▁captivate	-12.8317
▁Ill	-12.8323
▁awa	-12.8328
ploy	-12.8337
▁graduat	-12.8347
▁Ren	-12.8353
▁Ci	-12.8354
var	-12.8368
ifor	-12.8374
prais	-12.8384
▁funk	-12.8386
odi	-12.8405
zz	-12.8407
▁scree	-12.8408
ject	-12.8414
▁outta	-12.8424
agan	-12.8425
jive	-12.8429
icion	-12.8441
hed	-12.8463
▁Rud	-12.8479
▁participa	-12.8484
▁doom	-12.8505
▁thump	-12.8508
▁nomina	-12.851
▁Turk	-12.852
▁Orc	-12.8527
▁ravage	-12.8539
harmoni	-12.8542
▁Cav	-12.8544
lian	-12.8565
yan	-12.857
▁resurrecti	-12.858
ita	-12.8595
chr	-12.8597
▁adventu	-12.8604
tree	-12.861
plex	-12.8618
▁len	-12.8618
▁hallucin	-12.8627
▁liv	-12.8636
fing	-12.8638
orough	-12.8649
▁improv	-12.865
▁Hand	-12.8657
▁hus	-12.8657
icky	-12.8665
hameless	-12.8668
▁Andy	-12.8669
sk	-12.8671
▁hipp	-12.8673
▁unclea	-12.8687
▁cohere	-12.869
▁Sel	-12.869
▁shed	-12.8696
▁rounde	-12.8698
raffi	-12.8698
sour	-12.871
ssen	-12.8713
▁grav	-12.8715
scious	-12.8716
▁Cass	-12.8719
grat	-12.8722
▁narcissist	-12.8723
arker	-12.873
▁Putt	-12.8738
▁Ti	-12.8741
▁Card	-12.8763
ork	-12.8768
ench	-12.8779
▁stat	-12.8782
▁pian	-12.879
pr	-12.8796
jack	-12.8811
▁mum	-12.8835
ising	-12.8853
oop	-12.8854
▁hood	-12.8856
▁regurgitate	-12.8863
▁snag	-12.8877
▁Carli	-12.8878
▁camouflag	-12.8884
cts	-12.8891
▁accu	-12.8896
phic	-12.8912
app	-12.8913
▁gall	-12.8914
▁Nol	-12.8919
▁cer	-12.8928
▁Def	-12.8933
▁racke	-12.8933
▁Bli	-12.8945
vision	-12.8954
▁spra	-12.8977
monic	-12.8979
icks	-12.8983
▁sco	-12.8984
▁Zel	-12.8994
▁mil	-12.8999
▁advanc	-12.9006
inter	-12.9013
▁Arm	-12.9029
lder	-12.9036
▁alchem	-12.9036
▁Horr	-12.9037
lize	-12.9046
▁Syd	-12.9055
hot	-12.9082
trong	-12.9083
▁backsta	-12.9086
ogy	-12.9091
▁anarchi	-12.9094
▁mas	-12.9099
epresent	-12.9105
▁affab	-12.911
tters	-12.9121
▁Drea	-12.9124
▁Jag	-12.9125
ersuasi	-12.9129
▁unt	-12.9136
lump	-12.9142
harming	-12.9143
▁litt	-12.9145
great	-12.9153
▁afr	-12.9155
oster	-12.9166
val	-12.917
▁cru	-12.9173
▁nurture	-12.9179
▁194	-12.9181
aunted	-12.9192
ove	-12.9197
expose	-12.9199
auto	-12.9218
dan	-12.9224
▁studi	-12.9225
iva	-12.9235
▁agon	-12.9237
▁strang	-12.9246
got	-12.9274
ero	-12.9278
▁Pi	-12.9286
seem	-12.9297
uc	-12.9303
firm	-12.9309
▁Sti	-12.9315
distinguish	-12.9318
▁Chao	-12.9326
▁rav	-12.9333
79	-12.9336
▁uglie	-12.9337
▁wack	-12.9337
▁calcul	-12.9364
▁Yea	-12.9368
oit	-12.9368
17	-12.9368
nces	-12.9373
▁extr	-12.9381
▁femini	-12.9389
car	-12.9398
induc	-12.9415
▁retrospect	-12.9419
▁FI	-12.9423
ein	-12.9424
suit	-12.9425
▁glorif	-12.9443
ason	-12.9443
ib	-12.9446
amal	-12.9451
▁wire	-12.9453
ordinar	-12.9459
nging	-12.947
▁doors	-12.9472
▁imm	-12.9481
itis	-12.9485
▁Tel	-12.9485
▁Featur	-12.9496
horough	-12.9497
condition	-12.9507
▁pursue	-12.9513
▁mom	-12.9518
documentary	-12.9523
▁Mai	-12.9531
fo	-12.9532
Sta	-12.9546
▁appea	-12.9563
▁starter	-12.957
rett	-12.9581
HO	-12.9583
▁stimul	-12.9587
▁melancholi	-12.959
▁disco	-12.9598
dispens	-12.9607
anic	-12.961
EL	-12.9625
3-	-12.9632
▁overuse	-12.9635
rring	-12.9653
▁wast	-12.9655
iction	-12.9662
▁yell	-12.9682
▁vani	-12.969
istas	-12.9711
▁inexpressi	-12.9719
ulation	-12.973
entertaining	-12.9739
cken	-12.9742
avis	-12.9754
▁radi	-12.9761
▁Clea	-12.9762
▁Gif	-12.9764
▁Gang	-12.9768
emotional	-12.9771
▁fist	-12.9777
common	-12.9781
romantic	-12.9783
morous	-12.9785
▁unfl	-12.9786
plac	-12.9788
▁exhilarat	-12.9791
stray	-12.9807
eated	-12.9815
▁referen	-12.9816
Do	-12.9817
imp	-12.9824
rows	-12.9828
▁subscri	-12.9832
keep	-12.9836
▁Ide	-12.9836
gle	-12.9872
flam	-12.9899
▁reenact	-12.9902
▁defin	-12.9903
▁sunb	-12.9914
▁joi	-12.9929
▁grue	-12.9964
stinctive	-12.997
▁Tur	-12.9991
gate	-12.9997
▁Wim	-13
elle	-13.0002
alistic	-13.0003
▁comical	-13.0006
▁piec	-13.0011
hair	-13.0017
▁sol	-13.0024
▁Rep	-13.0025
▁Ramb	-13.0026
esson	-13.0027
loser	-13.0029
▁intr	-13.0038
lent	-13.0041
after	-13.0044
law	-13.0055
awdle	-13.0056
effect	-13.006
▁unend	-13.0062
▁demean	-13.0063
▁god	-13.0065
▁journal	-13.007
hack	-13.0086
mbling	-13.0087
▁likabl	-13.0091
critical	-13.0101
pri	-13.0116
numer	-13.0123
achiev	-13.0131
▁chuckl	-13.0143
▁plat	-13.0148
predict	-13.0159
▁grad	-13.0168
mount	-13.0181
orgas	-13.019
small	-13.0199
▁Fab	-13.02
high	-13.02
▁devot	-13.0205
zoo	-13.0215
zak	-13.0216
amage	-13.0225
▁communicat	-13.0228
actual	-13.0235
uation	-13.0235
▁tro	-13.0243
dard	-13.025
vigorat	-13.0264
▁borderl	-13.0273
icket	-13.0282
▁compromis	-13.0297
▁fram	-13.0302
feature	-13.031
▁morta	-13.032
cinema	-13.0325
▁Lai	-13.0333
arat	-13.0336
ateau	-13.0337
▁pok	-13.035
▁stoic	-13.0351
tie	-13.0353
▁automat	-13.0354
▁Combin	-13.0368
▁scre	-13.037
▁trivializ	-13.0371
▁giggl	-13.0375
▁affect	-13.0394
comic	-13.0397
▁alo	-13.0424
iaros	-13.0433
dark	-13.0441
nign	-13.0441
complete	-13.0444
bush	-13.0445
level	-13.0455
▁gunf	-13.0465
create	-13.0467
arant	-13.0469
▁compet	-13.0474
reel	-13.0477
image	-13.0497
tte	-13.0498
len	-13.0499
parent	-13.05
surprise	-13.0503
sho	-13.0511
▁presum	-13.0518
narrative	-13.0527
formula	-13.053
cliche	-13.0531
clusive	-13.0535
▁Bel	-13.0548
▁Sco	-13.0549
▁CE	-13.0568
▁Beau	-13.0583
▁prom	-13.0584
▁amiab	-13.0619
indict	-13.0623
▁dete	-13.0626
quil	-13.0639
▁fetishis	-13.0646
kat	-13.0653
serv	-13.0656
lar	-13.0669
eri	-13.0693
ample	-13.0701
typical	-13.0701
▁Gene	-13.0703
▁uncl	-13.0709
▁inv	-13.0709
connect	-13.071
deficien	-13.0712
bogg	-13.0717
chin	-13.0718
sse	-13.0726
buck	-13.0729
philosophic	-13.0733
▁hid	-13.0738
bak	-13.0739
relationship	-13.0742
▁uncomp	-13.0748
powerful	-13.0753
▁choos	-13.076
▁sturd	-13.0764
simpl	-13.0769
project	-13.0776
anging	-13.0776
cre	-13.0789
▁Sc	-13.0789
smart	-13.0795
French	-13.08
rbing	-13.0802
true	-13.0807
leasant	-13.0808
moral	-13.0815
detail	-13.0824
ssembl	-13.0837
▁tens	-13.084
extreme	-13.0842
▁Hav	-13.0845
rth	-13.0846
ripe	-13.0848
beyond	-13.0853
iving	-13.0855
psychological	-13.0863
crime	-13.0863
uty	-13.0869
cond	-13.0875
feeling	-13.0876
▁Kap	-13.0876
political	-13.0877
ssing	-13.0878
adulter	-13.088
sequel	-13.0886
▁uncle	-13.0888
▁repr	-13.0895
traordinar	-13.0898
alled	-13.09
approach	-13.0904
ncer	-13.0904
icken	-13.091
Disney	-13.0911
hilarious	-13.0915
reveal	-13.0917
violen	-13.0917
artist	-13.0918
▁intrusi	-13.092
sexual	-13.0921
ched	-13.0929
▁alternat	-13.0939
black	-13.094
above	-13.094
credit	-13.0944
▁pie	-13.0951
▁negativ	-13.0953
▁thes	-13.0962
exact	-13.0962
▁romanticiz	-13.0973
lower	-13.0982
simple	-13.0989
magic	-13.099
▁Leav	-13.0991
forgettabl	-13.0994
God	-13.0996
▁cred	-13.1
monster	-13.1
mystery	-13.1007
atitude	-13.1008
ised	-13.1008
▁stra	-13.101
hackle	-13.1012
▁gestur	-13.1013
variabl	-13.1014
fection	-13.1019
truth	-13.1022
Oscar	-13.1022
attention	-13.1027
▁doubl	-13.1031
gest	-13.1033
animated	-13.1036
▁ide	-13.1039
William	-13.1045
▁decid	-13.105
fantasy	-13.1063
ambitious	-13.1066
▁thinnes	-13.1067
deserve	-13.1069
ij	-13.107
raham	-13.1076
sustain	-13.1084
nclude	-13.1091
effective	-13.1092
future	-13.1092
dream	-13.1093
atisfying	-13.1093
▁fol	-13.11
▁unfa	-13.1102
release	-13.1109
Spielberg	-13.111
▁pig	-13.1117
ellin	-13.1117
couple	-13.1119
major	-13.1119
bland	-13.1128
damn	-13.113
rice	-13.113
Laugh	-13.1135
sp	-13.1137
grow	-13.114
▁vice	-13.1141
episode	-13.1146
ybe	-13.1149
creative	-13.1151
wild	-13.1156
▁Mid	-13.116
▁ban	-13.1163
▁sadis	-13.1163
murder	-13.1177
▁strateg	-13.1184
▁bubbl	-13.1184
clash	-13.1188
spectacular	-13.1191
▁Unfor	-13.1193
▁Terr	-13.1194
courage	-13.1196
train	-13.1199
cture	-13.12
target	-13.1215
drop	-13.1216
affecting	-13.1217
inoff	-13.1223
intellectual	-13.1223
oy	-13.1233
punch	-13.1234
▁remark	-13.1235
scary	-13.1236
recommend	-13.1238
▁perm	-13.1241
community	-13.1244
pulsive	-13.1245
▁impa	-13.1245
▁Enr	-13.1248
generation	-13.1248
▁yoursel	-13.1253
▁gru	-13.1257
▁tract	-13.1262
viewing	-13.1265
stunt	-13.1268
cracker	-13.1271
remember	-13.1277
model	-13.1279
bright	-13.1279
Rock	-13.128
professional	-13.1283
pitch	-13.1285
fatal	-13.1286
iful	-13.1289
phone	-13.1291
spoof	-13.1301
paint	-13.1302
Tel	-13.1303
imagin	-13.1303
▁enabl	-13.1307
▁anxi	-13.1307
answer	-13.1308
bug	-13.1309
immer	-13.131
empha	-13.1311
stomach	-13.1311
border	-13.1312
adolescent	-13.1312
ltz	-13.1313
obsession	-13.1314
musical	-13.1315
specific	-13.1315
▁revision	-13.1315
plate	-13.1316
industr	-13.1318
person	-13.1319
imagine	-13.132
continent	-13.132
found	-13.1322
shoot	-13.1324
zu	-13.1325
perception	-13.1328
gloss	-13.1328
infatuat	-13.1329
occup	-13.1334
contain	-13.1338
artificial	-13.1343
Jew	-13.1343
jealous	-13.1344
▁Strip	-13.1344
synch	-13.1346
▁dictat	-13.1347
paper	-13.1347
General	-13.1347
girlfriend	-13.1349
doctor	-13.1351
travel	-13.1354
humorous	-13.1354
Russian	-13.1356
milk	-13.1357
▁indi	-13.1358
opens	-13.1359
channel	-13.136
crawl	-13.1361
abuse	-13.1361
▁glid	-13.1362
Spider	-13.1363
expression	-13.1368
consum	-13.1368
nurture	-13.1369
▁che	-13.137
figure	-13.1371
flower	-13.1371
solution	-13.1372
starter	-13.1372
vampire	-13.1374
correct	-13.1375
uplift	-13.1375
horse	-13.1379
challeng	-13.1382
utiliz	-13.1382
acky	-13.1383
ik	-13.1384
potato	-13.1384
ndan	-13.1385
humour	-13.1387
drink	-13.1388
vor	-13.1388
balance	-13.1389
borrow	-13.139
order	-13.1391
Work	-13.1394
death	-13.1394
aggressive	-13.1394
Israeli	-13.1396
▁experimenta	-13.1396
aching	-13.1396
eyeball	-13.1397
Bond	-13.1399
animal	-13.1399
sophomor	-13.1399
thrilling	-13.1403
compulsive	-13.1403
grown	-13.1405
▁keg	-13.1407
exceptional	-13.1408
hypnotic	-13.1409
procedur	-13.1411
envelop	-13.1412
wrapp	-13.1415
romising	-13.1415
fifteen	-13.1415
▁champ	-13.1417
Video	-13.1418
▁Edit	-13.1418
innocen	-13.1418
curious	-13.142
Palestinian	-13.1421
cyber	-13.1421
Dogma	-13.1421
occupation	-13.1422
potent	-13.1422
Canadian	-13.1423
squeeze	-13.1423
structure	-13.1423
wreck	-13.1424
delusion	-13.1425
▁dist	-13.1427
therapy	-13.1428
McDo	-13.1428
suicid	-13.1429
incarnation	-13.143
crackle	-13.1433
anticipat	-13.1433
▁Brec	-13.1433
dawn	-13.1433
amused	-13.1433
castle	-13.1434
▁Extrem	-13.1434
WWII	-13.1435
workshop	-13.1436
▁hypo	-13.1436
chilling	-13.1438
▁scum	-13.1439
influence	-13.1439
season	-13.1439
obstacle	-13.144
uddl	-13.1441
Holo	-13.1442
Sept	-13.1443
indie	-13.1443
peril	-13.1443
shift	-13.1444
rebellio	-13.1447
Sein	-13.1447
loose	-13.1451
definition	-13.1451
Louis	-13.1455
ndisput	-13.1456
agenda	-13.1456
16	-13.1457
salvage	-13.1458
parallel	-13.1461
vulnerab	-13.1461
fabric	-13.1461
▁Str	-13.1461
confident	-13.1465
defeat	-13.1466
humaniz	-13.1468
riff	-13.1469
West	-13.147
22	-13.1471
substan	-13.1474
loyal	-13.1478
▁flim	-13.1478
insider	-13.1478
runner	-13.1478
stress	-13.148
questionabl	-13.148
racial	-13.1481
objectiv	-13.1482
economic	-13.1483
illusion	-13.1483
Holly	-13.1483
invent	-13.1484
adrenalin	-13.1484
ickle	-13.1485
jumb	-13.1486
broken	-13.1487
them	-13.1494
htwe	-13.1499
▁fenc	-13.15
▁machin	-13.1501
radio	-13.1501
group	-13.1502
FI	-13.1504
▁Admir	-13.1506
▁Reve	-13.1507
awake	-13.1509
▁bloodle	-13.151
▁Spark	-13.1511
sweep	-13.1511
tru	-13.1513
sleaz	-13.1515
advertis	-13.1515
guard	-13.1515
zero	-13.1516
▁Mer	-13.152
dirty	-13.152
appreciate	-13.1521
raptur	-13.1523
lance	-13.1527
tops	-13.1528
scu	-13.1528
gritt	-13.153
ifi	-13.1531
▁etern	-13.1531
▁Sol	-13.1532
pen	-13.1533
▁stumbl	-13.1535
Jar	-13.1537
embarrassing	-13.154
Mull	-13.1541
Men	-13.1542
inventive	-13.1542
enial	-13.1544
entary	-13.1547
advantage	-13.1549
▁slave	-13.155
account	-13.1551
suspense	-13.1557
▁misfir	-13.1559
lit	-13.156
classifi	-13.156
▁suspicio	-13.1562
encourag	-13.1568
cam	-13.1569
lavish	-13.157
onderous	-13.1571
definite	-13.1572
Ball	-13.1576
Up	-13.158
bath	-13.1581
broad	-13.1581
pabl	-13.1582
resolve	-13.1582
consci	-13.1583
geek	-13.1584
historic	-13.1588
▁grub	-13.1591
Pal	-13.1596
trail	-13.1596
AA	-13.1598
conciliat	-13.1601
romanticize	-13.1604
ublic	-13.1604
inflate	-13.1605
lis	-13.1615
diminishe	-13.1618
Hai	-13.1622
beard	-13.1625
honor	-13.1626
▁chop	-13.1627
▁ec	-13.1628
minim	-13.1632
▁narrati	-13.1633
▁progressi	-13.1634
Jud	-13.1639
plug	-13.1639
▁rec	-13.164
gang	-13.164
rson	-13.1642
▁deliberat	-13.1645
suppose	-13.1646
graduate	-13.1649
matur	-13.165
▁unrel	-13.165
Mary	-13.1651
bby	-13.1654
fuel	-13.1657
green	-13.1661
male	-13.1665
captur	-13.1665
▁Gh	-13.1666
▁glaci	-13.1666
awaken	-13.1666
eak	-13.167
▁rubb	-13.1674
viv	-13.1674
mplicit	-13.1675
▁orde	-13.1678
ravag	-13.1678
indulgen	-13.1693
render	-13.1697
neral	-13.1699
▁pains	-13.1699
embrac	-13.17
door	-13.1705
raz	-13.1706
ecta	-13.1712
normal	-13.1712
improvise	-13.1713
▁ea	-13.1714
trade	-13.1718
suburb	-13.1718
outrage	-13.1722
Que	-13.1726
was	-13.1727
glorious	-13.1729
hopp	-13.1733
essential	-13.1733
shallow	-13.1737
▁assur	-13.1738
nant	-13.1738
▁needles	-13.174
stupid	-13.1747
buff	-13.1751
knock	-13.1755
▁unacc	-13.1758
ophisticate	-13.1759
▁sublim	-13.176
bec	-13.1762
▁lar	-13.1762
phant	-13.1762
blank	-13.1769
rus	-13.1772
▁practic	-13.1774
▁Jacka	-13.1776
▁veri	-13.1777
▁stereo	-13.1781
vinci	-13.1783
poo	-13.1784
ambi	-13.1785
PT	-13.1785
▁gravita	-13.1788
urgeon	-13.1796
lexi	-13.1799
nventive	-13.18
▁sat	-13.18
andsome	-13.18
▁corru	-13.1802
reconcil	-13.1803
bio	-13.1807
▁libr	-13.1809
▁terrori	-13.1814
stimulate	-13.1817
bop	-13.1817
uct	-13.1818
player	-13.182
ncing	-13.1823
seeds	-13.1827
▁lookin	-13.183
▁Abo	-13.1832
Iv	-13.1833
▁hat	-13.1839
Bir	-13.184
▁impr	-13.1842
respect	-13.1845
redeemabl	-13.1847
depr	-13.1853
▁fab	-13.186
ppropriate	-13.1862
uppie	-13.1866
uthentic	-13.1872
being	-13.1874
acrifice	-13.1876
Step	-13.188
ucks	-13.1881
orce	-13.1881
▁flinch	-13.1886
▁dizz	-13.1887
ggressive	-13.189
▁Margar	-13.1891
assign	-13.1895
resist	-13.1896
food	-13.1897
mbitious	-13.1898
wkward	-13.1901
ttempt	-13.1902
▁lingeri	-13.1903
fasci	-13.1903
attracti	-13.1903
▁celeb	-13.1905
cash	-13.1905
▁perver	-13.1906
▁mel	-13.1906
33	-13.1908
constru	-13.1912
ffectionate	-13.1915
public	-13.1917
handi	-13.1918
bsolute	-13.1919
▁profil	-13.1919
dolescent	-13.1921
▁surfac	-13.1921
▁skat	-13.1922
doubt	-13.1923
satisf	-13.1927
stomp	-13.1934
▁Qual	-13.1937
ccura	-13.1938
niche	-13.1939
ct	-13.1939
rily	-13.1939
dragg	-13.1941
▁dy	-13.1943
▁Ble	-13.1945
fluent	-13.1947
emble	-13.1951
ignificant	-13.1955
cogni	-13.1956
▁architect	-13.1959
onceptual	-13.1959
▁middl	-13.1961
▁breezi	-13.1961
bourg	-13.1962
ev	-13.1963
unitive	-13.1963
\*	-13.1965
anovic	-13.1966
plane	-13.1967
exit	-13.1967
▁Lookin	-13.1973
shatter	-13.1973
▁hysteri	-13.1973
▁plea	-13.1973
pile	-13.1975
ffirm	-13.1976
▁26	-13.1976
intellig	-13.1977
▁celebr	-13.1985
▁72	-13.1985
characteriz	-13.1985
ethodical	-13.1988
▁swan	-13.1989
▁imparti	-13.1992
▁persisten	-13.1994
aqu	-13.1994
derly	-13.1995
niversal	-13.1995
▁practi	-13.1997
▁Goldb	-13.1998
▁proficien	-13.2
wful	-13.2001
▁descen	-13.2004
▁servic	-13.2005
▁transparen	-13.2007
▁magnificen	-13.201
▁snazz	-13.2014
▁boun	-13.2016
surrealist	-13.2016
temper	-13.2017
heav	-13.2019
▁eroti	-13.2025
merge	-13.2025
hetic	-13.2026
Alt	-13.2028
▁horr	-13.2029
▁hustl	-13.2035
▁exasperat	-13.2035
▁bewilder	-13.2036
▁passiv	-13.2037
▁Scoob	-13.2037
▁disquiet	-13.2039
▁adrenali	-13.2039
▁mesmeri	-13.204
▁irritat	-13.2041
bbies	-13.2041
▁astonish	-13.2042
▁suff	-13.2043
▁instru	-13.2043
▁Argentin	-13.2044
plash	-13.2045
pisode	-13.2046
▁shimmer	-13.2047
▁astound	-13.2048
igator	-13.205
Dar	-13.2054
▁lovabl	-13.2056
programme	-13.2057
▁forgiv	-13.2057
guts	-13.206
party	-13.206
noble	-13.2061
reaction	-13.2061
▁metaphoric	-13.2063
elli	-13.2063
▁brin	-13.2066
Plo	-13.2068
▁laug	-13.2068
referenc	-13.2069
▁compulsi	-13.207
leasing	-13.207
▁wane	-13.2072
rogram	-13.2072
▁Armenia	-13.2072
▁patroni	-13.2076
▁advert	-13.2076
▁Univ	-13.2077
stirr	-13.2078
▁celebrit	-13.2082
▁curren	-13.2085
naked	-13.2085
Express	-13.2087
▁infant	-13.2088
ravel	-13.2088
▁deci	-13.2088
Hop	-13.2089
plendid	-13.2089
▁annoy	-13.2089
▁unemoti	-13.209
▁Russia	-13.2091
fficient	-13.2092
tultifying	-13.2092
▁TH	-13.2093
cycl	-13.2094
bstacle	-13.2096
▁disapp	-13.2098
▁econom	-13.2098
▁situat	-13.21
▁Formul	-13.21
▁trifl	-13.2101
▁environ	-13.2102
▁Demons	-13.2102
abelle	-13.2102
▁chur	-13.2103
▁stagger	-13.2104
flux	-13.2105
ompetent	-13.2105
▁profess	-13.2106
eighbor	-13.2107
amount	-13.2107
▁ficti	-13.2107
quart	-13.2107
ypnotic	-13.2107
▁quarte	-13.2108
▁miscalculat	-13.2108
mmediate	-13.2108
▁oblivio	-13.2109
nconsequential	-13.211
▁obvi	-13.211
▁prince	-13.211
nterminabl	-13.211
nsufferabl	-13.211
ccentric	-13.2111
pportunis	-13.2112
lluminat	-13.2112
xcruciating	-13.2112
laborate	-13.2112
anipulative	-13.2113
▁unmention	-13.2113
ystem	-13.2114
lamboyan	-13.2115
televis	-13.2115
hypno	-13.2115
lockbuster	-13.2115
▁fantasti	-13.2115
roducer	-13.2115
rejudice	-13.2116
▁Psycho	-13.2116
eeching	-13.2116
rinciple	-13.2116
▁atroci	-13.2116
redecessor	-13.2116
idiculous	-13.2116
reposterous	-13.2116
▁anthropo	-13.2117
onnoisseur	-13.2117
rustrating	-13.2117
▁undergrad	-13.2117
▁Europe	-13.2117
▁nausea	-13.2117
▁dissol	-13.2118
erceptive	-13.2118
▁capitali	-13.2119
▁magnifi	-13.2119
abulous	-13.2119
raduate	-13.2119
▁sancti	-13.2119
▁uproar	-13.2119
▁juxtapos	-13.212
aaaaaaaa	-13.212
%	-13.212
+	-13.212
osyncra	-13.212
OOOO	-13.212
centricit	-13.212
zzzzzzzz	-13.212
▁\*\*	-13.212
mmmm	-13.212
template	-13.212
ortrait	-13.212
etaphor	-13.212
▁telegra	-13.212
hospita	-13.2121
▁rhapsodi	-13.2121
incomp	-13.2121
ontradict	-13.2121
ritual	-13.2122
▁symb	-13.2122
mocrat	-13.2123
▁Marvel	-13.2123
tless	-13.2123
heimer	-13.2123
erfect	-13.2125
EE	-13.2126
igenc	-13.2127
assacre	-13.2127
▁Patri	-13.2127
annabe	-13.2127
Pass	-13.2127
▁pyro	-13.2128
▁subj	-13.2128
halant	-13.2128
▁delica	-13.2129
ruminati	-13.2129
vincing	-13.2129
eminiscen	-13.2131
▁tribu	-13.2131
onnection	-13.2132
▁Shakespe	-13.2132
uccessful	-13.2133
istorical	-13.2133
obb	-13.2133
istinct	-13.2134
tribution	-13.2134
▁squir	-13.2134
owcase	-13.2135
▁GU	-13.2135
▁ramb	-13.2136
arrative	-13.2137
▁yaw	-13.2137
▁stubb	-13.2137
ropol	-13.2137
xotic	-13.2138
ggish	-13.2139
▁Alex	-13.214
▁ineff	-13.2142
▁Hilar	-13.2143
rrito	-13.2143
haracterisation	-13.2143
zarre	-13.2143
petite	-13.2144
holic	-13.2146
▁Ecc	-13.2146
robin	-13.2147
iresome	-13.2147
uggle	-13.2148
▁immor	-13.215
rag	-13.2152
▁Anton	-13.2155
▁instal	-13.2156
elodrama	-13.2157
mogr	-13.2157
urposeful	-13.2159
▁premi	-13.216
▁schm	-13.2164
bump	-13.2165
niversa	-13.2166
▁astron	-13.2166
udden	-13.217
▁Hitch	-13.2177
▁pande	-13.2182
▁enthus	-13.2186
MI	-13.2186
xpressionist	-13.2187
cumen	-13.2188
IR	-13.219
▁endear	-13.219
ranscend	-13.2191
aneous	-13.2193
nate	-13.2195
deli	-13.2197
▁Aggr	-13.2197
iding	-13.2199
epartment	-13.22
apolog	-13.2203
matron	-13.2203
▁commerc	-13.2204
▁physi	-13.2206
fecting	-13.2206
weave	-13.2207
diotic	-13.2211
▁milli	-13.2212
cade	-13.2213
agne	-13.2215
▁Compa	-13.2215
cepti	-13.2221
Sall	-13.2222
▁marve	-13.2223
▁Wed	-13.2224
lific	-13.2224
Av	-13.2225
blow	-13.2226
roniz	-13.2227
alient	-13.223
ptitude	-13.2231
▁revisi	-13.2233
ann	-13.2235
▁mids	-13.2237
torio	-13.2238
chef	-13.2243
lagging	-13.2244
eassuring	-13.2244
▁intoxicati	-13.2245
▁diff	-13.2246
cuff	-13.2248
96	-13.2249
uyi	-13.2251
inform	-13.2251
goose	-13.2259
chological	-13.2263
iousness	-13.2265
undra	-13.2266
distan	-13.2267
chees	-13.2268
▁supporti	-13.2268
palling	-13.2268
▁unaf	-13.2268
▁sni	-13.227
▁Gentl	-13.2273
rivial	-13.2277
▁rej	-13.2278
wi	-13.2279
chmaltz	-13.228
iotic	-13.2281
▁nois	-13.2282
▁propert	-13.2282
cogniza	-13.2284
▁unpl	-13.229
taph	-13.229
nkles	-13.229
Div	-13.2295
thru	-13.2296
eit	-13.23
ridd	-13.23
lence	-13.2301
▁expan	-13.2302
mela	-13.2303
udent	-13.2308
▁discerni	-13.2316
quin	-13.2318
▁simulat	-13.2321
rooms	-13.2321
nex	-13.2323
▁posse	-13.2326
▁Fran	-13.2326
▁tortu	-13.2327
quander	-13.2331
snicke	-13.2337
ploitati	-13.2343
owes	-13.2348
▁refr	-13.2349
spread	-13.2351
PA	-13.2351
▁calc	-13.2352
rama	-13.2352
▁porno	-13.2353
nual	-13.2353
ardot	-13.2354
▁skil	-13.2354
▁pond	-13.2355
▁Led	-13.2355
otype	-13.2357
warf	-13.2358
▁gig	-13.2361
start	-13.2362
flection	-13.2363
rror	-13.2365
laki	-13.2365
▁Shakes	-13.2369
kable	-13.2371
rmud	-13.2372
llab	-13.2373
▁Makin	-13.2374
rtle	-13.2375
iversal	-13.2378
chain	-13.2382
▁rhy	-13.2382
abs	-13.2385
▁Scoo	-13.2385
guess	-13.2391
▁ineffect	-13.2392
▁twent	-13.2394
▁transm	-13.2398
▁relation	-13.2402
▁battl	-13.2403
losi	-13.2405
▁sm	-13.2406
ebod	-13.2407
ritic	-13.2415
▁unf	-13.2417
mart	-13.2417
▁Poll	-13.2418
▁shu	-13.2421
▁hob	-13.2423
▁grea	-13.2424
zar	-13.2428
trod	-13.2434
llegia	-13.2442
▁hors	-13.2451
pun	-13.2452
▁encom	-13.246
▁shoes	-13.246
bul	-13.2467
riddle	-13.2468
▁unpre	-13.2471
illing	-13.2472
▁Medi	-13.2472
nnoc	-13.2472
▁recom	-13.2475
▁fasci	-13.2478
▁transpo	-13.248
mmering	-13.2481
frat	-13.2486
stock	-13.2486
amental	-13.2491
idge	-13.2496
Aid	-13.2498
hurch	-13.2499
ange	-13.2499
▁conge	-13.25
efuddle	-13.25
rdinar	-13.25
sult	-13.2502
ija	-13.2504
▁Mass	-13.2508
▁pow	-13.2512
▁jag	-13.2516
▁Ful	-13.2518
halleng	-13.2519
dread	-13.252
doc	-13.2525
ncounter	-13.2525
rubber	-13.2531
hrewd	-13.2531
eunion	-13.2536
tures	-13.2536
UN	-13.2543
▁improvis	-13.2547
▁confl	-13.2552
terminat	-13.2558
▁Theolog	-13.2569
mains	-13.2573
▁suffic	-13.2574
rgot	-13.2576
rise	-13.2589
wift	-13.2591
eam	-13.2592
▁bur	-13.2596
bett	-13.2599
▁demonstrati	-13.2601
nigh	-13.2606
page	-13.261
▁acce	-13.2611
▁compre	-13.2614
resident	-13.2615
omme	-13.2616
▁incre	-13.2618
ccident	-13.2623
starr	-13.2624
chang	-13.2625
▁Weig	-13.2628
▁retr	-13.2637
▁Bolly	-13.2638
eceiving	-13.2639
kick	-13.2639
▁organi	-13.2643
▁Pete	-13.2646
sto	-13.2648
▁worldly	-13.2649
▁conclu	-13.265
▁Cam	-13.2655
igm	-13.2657
▁Phili	-13.266
stripp	-13.2661
haus	-13.2662
De	-13.267
pull	-13.2671
igger	-13.2675
equel	-13.2678
wann	-13.2683
trust	-13.2684
bord	-13.2688
▁impl	-13.2693
logist	-13.2693
rrent	-13.2695
bows	-13.2697
reamli	-13.2701
▁Lace	-13.2702
mpting	-13.2706
arism	-13.2707
tude	-13.2713
lushi	-13.2721
▁Thou	-13.2726
tention	-13.2727
neous	-13.2731
▁prog	-13.2731
▁gamb	-13.2733
▁Prob	-13.2748
▁jun	-13.2765
▁smu	-13.2768
dote	-13.2773
hidden	-13.2774
▁Eng	-13.2776
rboard	-13.2777
▁undertak	-13.2777
▁install	-13.2779
athon	-13.2783
▁Ob	-13.2785
▁insisten	-13.2788
▁pap	-13.2796
uccumb	-13.2799
▁unfla	-13.2803
▁avert	-13.281
uarantee	-13.2812
iographic	-13.2818
lobby	-13.2824
realis	-13.2826
antasm	-13.2828
oing	-13.2829
stal	-13.2829
▁Fer	-13.283
▁Twe	-13.2831
rete	-13.2834
thou	-13.2839
efreshing	-13.2842
rip	-13.2842
▁chore	-13.2845
onne	-13.2864
▁Batt	-13.2864
summer	-13.2872
vote	-13.2876
splatter	-13.2877
bins	-13.2878
flow	-13.2884
Harr	-13.2891
pay	-13.2897
scoop	-13.2902
utrageous	-13.2903
▁phil	-13.2906
raine	-13.2915
▁parti	-13.2917
ouble	-13.292
▁trif	-13.293
▁signif	-13.2931
nvigorat	-13.2932
osen	-13.2933
lla	-13.2936
▁dial	-13.2937
▁Gir	-13.2938
ulls	-13.2939
▁conta	-13.295
throw	-13.2952
listen	-13.2955
iti	-13.2956
empt	-13.2968
liver	-13.2969
▁foun	-13.2969
gut	-13.2977
▁bou	-13.2978
eces	-13.2984
▁Thu	-13.2989
uri	-13.299
scape	-13.2995
need	-13.3002
▁lov	-13.3006
▁mir	-13.3008
▁gunfi	-13.3011
swallo	-13.3015
▁demon	-13.3016
▁Dep	-13.3022
cream	-13.3034
eman	-13.3036
ageant	-13.3039
▁Despl	-13.3042
▁Bui	-13.3044
▁feti	-13.3048
▁Muske	-13.3053
lev	-13.3055
ondi	-13.3058
humou	-13.307
▁Interm	-13.3074
ften	-13.3076
▁Kn	-13.3077
rot	-13.3082
▁empha	-13.3091
amus	-13.3104
awful	-13.3111
ightmare	-13.3117
▁surve	-13.3124
ensure	-13.3126
maki	-13.3127
▁conspira	-13.3137
tank	-13.3143
uns	-13.3157
▁compell	-13.3169
▁freaks	-13.317
▁glit	-13.3172
rad	-13.3183
▁Jeo	-13.3185
lki	-13.319
grand	-13.3193
laborator	-13.32
uggest	-13.3202
awa	-13.3207
▁unsurp	-13.3207
noxious	-13.3208
▁scienti	-13.3218
lived	-13.3222
riangle	-13.3231
lonel	-13.3233
rossing	-13.3235
hower	-13.3236
▁tu	-13.3246
nton	-13.3249
▁Conc	-13.3251
▁classif	-13.3258
▁explorat	-13.326
adorab	-13.3263
▁maln	-13.3266
abo	-13.327
▁Port	-13.327
achieve	-13.3274
erial	-13.3277
izza	-13.328
isty	-13.3285
ex	-13.3286
sturb	-13.329
▁fore	-13.3294
▁Fee	-13.3296
toast	-13.3301
▁hotte	-13.3303
▁hyp	-13.3303
utomatic	-13.3308
Kie	-13.3308
linger	-13.3315
▁mon	-13.332
lig	-13.3322
▁serio	-13.3325
▁unsu	-13.3332
▁rega	-13.3339
liar	-13.3339
aps	-13.3342
ncoheren	-13.3364
haracterization	-13.3365
isq	-13.3371
cano	-13.3374
▁kille	-13.3375
▁motiv	-13.3383
mini	-13.3384
▁moth	-13.3396
ransport	-13.3397
roo	-13.3398
eze	-13.3405
▁revo	-13.3409
site	-13.3412
mov	-13.3413
raditional	-13.3425
▁spec	-13.3429
▁concentrati	-13.3443
▁ambi	-13.3446
repre	-13.345
alog	-13.3458
njo	-13.3463
▁ape	-13.3464
locks	-13.3465
cGra	-13.3467
abb	-13.3472
riminal	-13.3472
versati	-13.3479
xtraordinar	-13.3481
▁artiste	-13.3483
tox	-13.3485
oil	-13.349
▁fal	-13.3491
guil	-13.3491
lds	-13.3495
ottom	-13.3507
mpling	-13.3513
badly	-13.3514
non	-13.3539
▁provok	-13.354
ora	-13.3541
scend	-13.356
▁sust	-13.3564
▁Dall	-13.357
ctment	-13.3573
kness	-13.3596
gular	-13.3598
nta	-13.3605
uber	-13.3608
nold	-13.3616
▁Ros	-13.3616
hren	-13.3621
rection	-13.3622
spooki	-13.3625
▁simpli	-13.3634
riment	-13.3635
Ter	-13.3656
▁Lite	-13.3681
feel	-13.3685
ossi	-13.3696
▁slot	-13.3696
ortles	-13.37
ixed	-13.3711
▁Merc	-13.3712
▁leade	-13.3713
▁dominat	-13.3713
ias	-13.3715
mod	-13.3716
omplex	-13.3716
layed	-13.3716
tache	-13.3717
onto	-13.3723
tylistic	-13.3724
notice	-13.3737
▁ido	-13.374
▁Unfo	-13.3741
ricks	-13.3756
▁sn	-13.3759
▁escap	-13.3759
test	-13.3759
▁colo	-13.3761
▁mig	-13.3762
every	-13.3763
▁Murd	-13.3775
▁Des	-13.3784
▁deba	-13.3786
tchin	-13.3794
olla	-13.3794
▁sequ	-13.3805
mitten	-13.3808
▁corni	-13.3808
onize	-13.3818
arshal	-13.382
▁surrealis	-13.3824
▁Lol	-13.3834
uma	-13.3837
ception	-13.3839
minu	-13.384
imming	-13.3843
veil	-13.3848
possesse	-13.3864
scent	-13.387
mb	-13.3876
friends	-13.3877
inni	-13.3884
▁Schn	-13.3891
maid	-13.3892
cuse	-13.3899
ewcomer	-13.3905
▁lika	-13.3906
ported	-13.3907
▁enti	-13.3913
▁Gol	-13.3927
enefit	-13.3931
hin	-13.3934
▁overdo	-13.3953
accept	-13.3956
▁infla	-13.3962
▁Gile	-13.3963
ransporte	-13.3979
traight	-13.3991
ventur	-13.3996
▁Sl	-13.3996
▁Rein	-13.3999
▁Phon	-13.4
▁likab	-13.4021
ibbi	-13.4028
bsorb	-13.4035
rist	-13.4043
reache	-13.405
▁posit	-13.4051
▁evan	-13.4055
▁Princ	-13.4055
media	-13.4059
tarian	-13.4062
▁Dow	-13.4067
ndless	-13.4073
stain	-13.4081
▁lite	-13.4082
seeming	-13.409
eartwarming	-13.4091
sthetic	-13.4091
▁ob	-13.4094
▁proc	-13.4105
▁comin	-13.4117
keen	-13.4126
eign	-13.4142
▁spat	-13.4143
attoo	-13.4149
nuck	-13.4152
blo	-13.4156
dad	-13.4158
▁deb	-13.4164
8-	-13.4167
▁booste	-13.4169
indere	-13.419
▁Dav	-13.4193
thetic	-13.4193
aul	-13.4194
▁secu	-13.42
▁roi	-13.4211
chool	-13.4217
del	-13.4222
controll	-13.4238
geon	-13.4242
▁stunn	-13.4262
▁Stor	-13.4263
▁Vit	-13.427
▁hammi	-13.4271
▁expo	-13.4272
anical	-13.4273
ocky	-13.429
rob	-13.4294
ordant	-13.4303
▁dramati	-13.4312
retentious	-13.4314
due	-13.4317
▁Slee	-13.4318
steal	-13.4321
▁loo	-13.4328
▁obsess	-13.434
mite	-13.4347
aday	-13.4357
▁presse	-13.4377
heist	-13.4379
chieve	-13.438
tunate	-13.4397
▁hou	-13.4403
itz	-13.4417
rkey	-13.4436
▁Gau	-13.4441
rner	-13.4442
▁grou	-13.4442
▁cle	-13.4443
lat	-13.4443
phe	-13.4466
ngton	-13.4473
▁Les	-13.4475
determin	-13.4488
fold	-13.4513
iken	-13.4522
enge	-13.4524
aks	-13.4525
▁Bog	-13.4527
undert	-13.4528
gorge	-13.4534
▁mora	-13.4547
rls	-13.4552
▁Rec	-13.4554
expressive	-13.4555
induce	-13.4562
ads	-13.4569
▁dispa	-13.4569
▁indig	-13.4586
sophisticat	-13.4605
orni	-13.4613
ntil	-13.4618
▁skate	-13.4619
entur	-13.4623
▁Fel	-13.4626
hell	-13.4639
▁yea	-13.4648
▁Aud	-13.465
lorious	-13.4658
xcessive	-13.4659
▁worker	-13.4661
onal	-13.4663
sucker	-13.4666
abble	-13.4667
ensual	-13.4668
ector	-13.4682
▁sob	-13.4689
hind	-13.469
▁Ori	-13.4691
▁pup	-13.4696
satisfactor	-13.4708
enign	-13.4708
mise	-13.4709
ovie	-13.4714
▁cert	-13.4721
▁ble	-13.4726
lates	-13.4736
terior	-13.4742
stra	-13.4746
ures	-13.4756
▁Fil	-13.4769
reality	-13.477
▁Cou	-13.4772
▁unsur	-13.4773
sounding	-13.4776
realiz	-13.4783
inkling	-13.4787
rmo	-13.4796
▁met	-13.4807
▁seduc	-13.4809
▁residen	-13.4815
▁abys	-13.4823
▁inf	-13.4826
mbo	-13.4833
essage	-13.4835
ected	-13.484
gedd	-13.4846
ust	-13.4852
aven	-13.486
▁Gren	-13.4875
▁Lis	-13.4876
gene	-13.4879
sque	-13.4888
reli	-13.4897
icit	-13.4917
ifties	-13.4919
▁imitati	-13.4931
▁Dun	-13.4939
▁hor	-13.4945
hang	-13.4946
tern	-13.4946
sink	-13.4953
kas	-13.4969
▁empt	-13.498
ucia	-13.4985
para	-13.5002
▁Spal	-13.5009
ewer	-13.5026
onfirm	-13.504
▁tee	-13.5045
irth	-13.5049
▁ir	-13.5058
charisma	-13.5067
flat	-13.5081
ota	-13.5082
behav	-13.5093
▁Hung	-13.5093
eration	-13.51
abric	-13.5105
▁slop	-13.5107
▁Ster	-13.5114
ulting	-13.5114
49	-13.5121
oul	-13.5123
sign	-13.5126
inch	-13.5131
heading	-13.5134
pless	-13.5139
▁jud	-13.5146
ule	-13.515
▁chor	-13.5151
expos	-13.5155
reams	-13.5217
Jon	-13.5232
ori	-13.5235
▁Eas	-13.5242
owns	-13.5253
lty	-13.5303
▁wat	-13.5307
mperfect	-13.5309
xquisite	-13.5318
▁Sma	-13.5325
willing	-13.5341
utin	-13.5341
ignifi	-13.5354
gles	-13.5365
▁Hun	-13.5371
dab	-13.5374
bou	-13.538
uture	-13.5382
then	-13.5389
lik	-13.5389
▁Marc	-13.539
▁Dar	-13.5397
▁Ei	-13.54
scal	-13.5403
ros	-13.5411
chill	-13.5411
▁luc	-13.5415
atient	-13.5419
▁vir	-13.542
▁troub	-13.5424
▁plo	-13.5433
pick	-13.5434
rism	-13.5442
chemical	-13.5445
▁Mov	-13.5458
zp	-13.5468
ole	-13.5468
oses	-13.5479
resting	-13.5479
▁Rin	-13.5492
▁deca	-13.5498
▁comb	-13.5503
edom	-13.5506
edious	-13.5519
etta	-13.5529
▁highe	-13.5531
▁bucke	-13.5539
lations	-13.5551
ela	-13.5555
yles	-13.5557
kilt	-13.5557
ntertainment	-13.5566
rse	-13.557
script	-13.5577
thodo	-13.558
▁ow	-13.5606
▁gangst	-13.562
xe	-13.5639
ders	-13.5642
aux	-13.5644
hoo	-13.565
acht	-13.5665
▁undis	-13.5673
path	-13.5677
▁cod	-13.5683
lac	-13.5684
eeze	-13.5686
▁dem	-13.5702
▁Aw	-13.5702
▁affi	-13.5703
pressi	-13.5708
irk	-13.5745
▁approache	-13.5747
mpoon	-13.5762
▁Rid	-13.5769
▁neur	-13.5771
mell	-13.5776
▁curt	-13.5779
ril	-13.5791
▁Kan	-13.5796
ompassionate	-13.5798
consistent	-13.581
toile	-13.5815
Me	-13.5823
▁indulgen	-13.5826
etter	-13.584
sti	-13.5841
ttling	-13.5847
▁disc	-13.5853
imel	-13.5862
mily	-13.5883
▁inc	-13.5886
▁Blu	-13.5893
▁prett	-13.5902
ala	-13.5922
persua	-13.5936
nded	-13.5937
▁ele	-13.594
eve	-13.5951
▁overco	-13.5961
ppo	-13.5961
icabl	-13.5967
▁Rei	-13.5969
▁Fas	-13.5978
▁marti	-13.5987
▁Gli	-13.599
▁mysti	-13.5993
ogen	-13.6003
agina	-13.6012
lvin	-13.6031
gender	-13.6037
ident	-13.6052
mie	-13.6056
ggl	-13.6062
ondon	-13.6065
ibrant	-13.6066
tas	-13.6081
▁metaph	-13.6092
ided	-13.6093
▁Cli	-13.6095
▁sale	-13.6097
overs	-13.6106
kman	-13.6151
▁ano	-13.6156
urs	-13.6185
▁Sen	-13.619
▁oversta	-13.6191
ssy	-13.6198
ymn	-13.6199
▁Shak	-13.6208
▁prese	-13.6212
▁pretentio	-13.6229
ctur	-13.625
move	-13.626
volution	-13.6277
ummi	-13.6278
▁existent	-13.6282
▁Vib	-13.6292
▁depressi	-13.6304
aith	-13.6325
offs	-13.6337
cit	-13.6358
brin	-13.6361
Ps	-13.6362
ntle	-13.6386
▁Highl	-13.64
rang	-13.6401
aris	-13.641
onsequence	-13.6421
ustain	-13.6424
qua	-13.6434
▁wholes	-13.6457
▁eff	-13.6472
zle	-13.6476
tuna	-13.6514
▁scat	-13.6518
It	-13.652
xis	-13.6526
urp	-13.6533
rown	-13.6558
sides	-13.6563
mpossibl	-13.6579
▁downsi	-13.659
*	-14.5866
Z	-14.5867
/	-14.5868
!	-14.5869
\	-14.587
P	-14.5871
